unsigned char mnist_cnn_small_int8_tflite[] = {
  0x20, 0x00, 0x00, 0x00, 0x54, 0x46, 0x4c, 0x33, 0x00, 0x00, 0x00, 0x00,
  0x14, 0x00, 0x20, 0x00, 0x1c, 0x00, 0x18, 0x00, 0x14, 0x00, 0x10, 0x00,
  0x0c, 0x00, 0x00, 0x00, 0x08, 0x00, 0x04, 0x00, 0x14, 0x00, 0x00, 0x00,
  0x1c, 0x00, 0x00, 0x00, 0x8c, 0x00, 0x00, 0x00, 0x0c, 0x01, 0x00, 0x00,
  0xb4, 0x3b, 0x00, 0x00, 0xc4, 0x3b, 0x00, 0x00, 0xbc, 0x4d, 0x00, 0x00,
  0x03, 0x00, 0x00, 0x00, 0x01, 0x00, 0x00, 0x00, 0x04, 0x00, 0x00, 0x00,
  0x42, 0xc3, 0xff, 0xff, 0x0c, 0x00, 0x00, 0x00, 0x1c, 0x00, 0x00, 0x00,
  0x3c, 0x00, 0x00, 0x00, 0x0f, 0x00, 0x00, 0x00, 0x73, 0x65, 0x72, 0x76,
  0x69, 0x6e, 0x67, 0x5f, 0x64, 0x65, 0x66, 0x61, 0x75, 0x6c, 0x74, 0x00,
  0x01, 0x00, 0x00, 0x00, 0x04, 0x00, 0x00, 0x00, 0x68, 0xff, 0xff, 0xff,
  0x11, 0x00, 0x00, 0x00, 0x04, 0x00, 0x00, 0x00, 0x08, 0x00, 0x00, 0x00,
  0x6f, 0x75, 0x74, 0x70, 0x75, 0x74, 0x5f, 0x30, 0x00, 0x00, 0x00, 0x00,
  0x01, 0x00, 0x00, 0x00, 0x04, 0x00, 0x00, 0x00, 0x26, 0xc4, 0xff, 0xff,
  0x04, 0x00, 0x00, 0x00, 0x0c, 0x00, 0x00, 0x00, 0x6b, 0x65, 0x72, 0x61,
  0x73, 0x5f, 0x74, 0x65, 0x6e, 0x73, 0x6f, 0x72, 0x00, 0x00, 0x00, 0x00,
  0x03, 0x00, 0x00, 0x00, 0x5c, 0x00, 0x00, 0x00, 0x2c, 0x00, 0x00, 0x00,
  0x04, 0x00, 0x00, 0x00, 0xb8, 0xff, 0xff, 0xff, 0x15, 0x00, 0x00, 0x00,
  0x04, 0x00, 0x00, 0x00, 0x13, 0x00, 0x00, 0x00, 0x43, 0x4f, 0x4e, 0x56,
  0x45, 0x52, 0x53, 0x49, 0x4f, 0x4e, 0x5f, 0x4d, 0x45, 0x54, 0x41, 0x44,
  0x41, 0x54, 0x41, 0x00, 0xdc, 0xff, 0xff, 0xff, 0x14, 0x00, 0x00, 0x00,
  0x04, 0x00, 0x00, 0x00, 0x13, 0x00, 0x00, 0x00, 0x6d, 0x69, 0x6e, 0x5f,
  0x72, 0x75, 0x6e, 0x74, 0x69, 0x6d, 0x65, 0x5f, 0x76, 0x65, 0x72, 0x73,
  0x69, 0x6f, 0x6e, 0x00, 0x08, 0x00, 0x0c, 0x00, 0x08, 0x00, 0x04, 0x00,
  0x08, 0x00, 0x00, 0x00, 0x13, 0x00, 0x00, 0x00, 0x04, 0x00, 0x00, 0x00,
  0x13, 0x00, 0x00, 0x00, 0x6d, 0x69, 0x6e, 0x5f, 0x72, 0x75, 0x6e, 0x74,
  0x69, 0x6d, 0x65, 0x5f, 0x76, 0x65, 0x72, 0x73, 0x69, 0x6f, 0x6e, 0x00,
  0x16, 0x00, 0x00, 0x00, 0xa4, 0x3a, 0x00, 0x00, 0x9c, 0x3a, 0x00, 0x00,
  0x84, 0x3a, 0x00, 0x00, 0x4c, 0x3a, 0x00, 0x00, 0xfc, 0x38, 0x00, 0x00,
  0x6c, 0x38, 0x00, 0x00, 0x5c, 0x06, 0x00, 0x00, 0x0c, 0x06, 0x00, 0x00,
  0x7c, 0x01, 0x00, 0x00, 0x4c, 0x01, 0x00, 0x00, 0xf4, 0x00, 0x00, 0x00,
  0xec, 0x00, 0x00, 0x00, 0xe4, 0x00, 0x00, 0x00, 0xdc, 0x00, 0x00, 0x00,
  0xd4, 0x00, 0x00, 0x00, 0xcc, 0x00, 0x00, 0x00, 0xc4, 0x00, 0x00, 0x00,
  0xbc, 0x00, 0x00, 0x00, 0xb4, 0x00, 0x00, 0x00, 0x94, 0x00, 0x00, 0x00,
  0x74, 0x00, 0x00, 0x00, 0x04, 0x00, 0x00, 0x00, 0x22, 0xc5, 0xff, 0xff,
  0x04, 0x00, 0x00, 0x00, 0x60, 0x00, 0x00, 0x00, 0x0c, 0x00, 0x00, 0x00,
  0x08, 0x00, 0x0e, 0x00, 0x08, 0x00, 0x04, 0x00, 0x08, 0x00, 0x00, 0x00,
  0x10, 0x00, 0x00, 0x00, 0x28, 0x00, 0x00, 0x00, 0x00, 0x00, 0x06, 0x00,
  0x08, 0x00, 0x04, 0x00, 0x06, 0x00, 0x00, 0x00, 0x04, 0x00, 0x00, 0x00,
  0x01, 0x00, 0x00, 0x00, 0xeb, 0x03, 0x00, 0x00, 0x0c, 0x00, 0x18, 0x00,
  0x14, 0x00, 0x10, 0x00, 0x0c, 0x00, 0x04, 0x00, 0x0c, 0x00, 0x00, 0x00,
  0x1c, 0x61, 0x43, 0xd1, 0xe0, 0xaf, 0x7c, 0xd0, 0x02, 0x00, 0x00, 0x00,
  0x02, 0x00, 0x00, 0x00, 0x04, 0x00, 0x00, 0x00, 0x06, 0x00, 0x00, 0x00,
  0x32, 0x2e, 0x31, 0x38, 0x2e, 0x30, 0x00, 0x00, 0x8e, 0xc5, 0xff, 0xff,
  0x04, 0x00, 0x00, 0x00, 0x10, 0x00, 0x00, 0x00, 0x00, 0x00, 0x00, 0x00,
  0x00, 0x00, 0x00, 0x00, 0x00, 0x00, 0x00, 0x00, 0x00, 0x00, 0x00, 0x00,
  0xaa, 0xc5, 0xff, 0xff, 0x04, 0x00, 0x00, 0x00, 0x10, 0x00, 0x00, 0x00,
  0x31, 0x2e, 0x31, 0x34, 0x2e, 0x30, 0x00, 0x00, 0x00, 0x00, 0x00, 0x00,
  0x00, 0x00, 0x00, 0x00, 0x1c, 0xb5, 0xff, 0xff, 0x20, 0xb5, 0xff, 0xff,
  0x24, 0xb5, 0xff, 0xff, 0x28, 0xb5, 0xff, 0xff, 0x2c, 0xb5, 0xff, 0xff,
  0x30, 0xb5, 0xff, 0xff, 0x34, 0xb5, 0xff, 0xff, 0x38, 0xb5, 0xff, 0xff,
  0xe6, 0xc5, 0xff, 0xff, 0x04, 0x00, 0x00, 0x00, 0x48, 0x00, 0x00, 0x00,
  0x00, 0xe6, 0x52, 0xc2, 0x63, 0x7f, 0x2f, 0x37, 0x19, 0x8e, 0xc6, 0xbc,
  0x3e, 0xc7, 0xd9, 0x7f, 0x49, 0x06, 0x33, 0x11, 0x58, 0x27, 0xf9, 0x6b,
  0x19, 0x3a, 0x7f, 0x57, 0xfb, 0xa1, 0x6f, 0xfe, 0x81, 0x43, 0x05, 0xd2,
  0x59, 0xf6, 0xce, 0x10, 0x59, 0xe2, 0x7f, 0x6c, 0x69, 0xed, 0x66, 0x64,
  0x70, 0x4d, 0x6a, 0x7b, 0x7f, 0xcd, 0x31, 0xce, 0xbb, 0x76, 0x1a, 0x45,
  0x50, 0x28, 0x7f, 0x81, 0xb7, 0x21, 0xfe, 0x1f, 0x42, 0x23, 0x60, 0xfc,
  0x3a, 0xc6, 0xff, 0xff, 0x04, 0x00, 0x00, 0x00, 0x20, 0x00, 0x00, 0x00,
  0xf1, 0xfe, 0xff, 0xff, 0xea, 0x08, 0x00, 0x00, 0xc5, 0xff, 0xff, 0xff,
  0xc3, 0x04, 0x00, 0x00, 0xc0, 0xfd, 0xff, 0xff, 0x5f, 0xfd, 0xff, 0xff,
  0xc3, 0xfd, 0xff, 0xff, 0x53, 0xff, 0xff, 0xff, 0x66, 0xc6, 0xff, 0xff,
  0x04, 0x00, 0x00, 0x00, 0x80, 0x04, 0x00, 0x00, 0xb7, 0x7f, 0xc2, 0xbd,
  0xcd, 0xcf, 0x21, 0xd8, 0xc7, 0x48, 0xc8, 0xc1, 0xfc, 0xc0, 0xc1, 0xfb,
  0xb9, 0x12, 0xce, 0xcb, 0x9c, 0x06, 0xdc, 0xdd, 0x15, 0x27, 0x14, 0xd4,
  0x2a, 0xf5, 0x07, 0x08, 0xfc, 0x41, 0xca, 0x00, 0x3f, 0xeb, 0x37, 0xdf,
  0x8f, 0x70, 0xd5, 0xef, 0x23, 0xa9, 0xce, 0xc7, 0x27, 0xe9, 0x2c, 0x16,
  0x3c, 0x3b, 0x3a, 0x14, 0x1c, 0x0b, 0xf1, 0xf1, 0x1f, 0xfe, 0x13, 0x05,
  0x0a, 0x53, 0x08, 0x24, 0x3a, 0x13, 0x19, 0x19, 0xc6, 0x29, 0xde, 0x32,
  0xea, 0x06, 0xdb, 0x11, 0xef, 0x2f, 0xdb, 0x2e, 0xc4, 0xc1, 0xd2, 0xf6,
  0xf5, 0xbd, 0x38, 0xaf, 0x19, 0x36, 0x33, 0x09, 0xae, 0xd6, 0xc6, 0xf3,
  0xe5, 0xbd, 0xda, 0xe1, 0x1f, 0xe8, 0x25, 0xb7, 0xe7, 0x0d, 0xf6, 0x10,
  0x18, 0xd1, 0x42, 0xac, 0x12, 0x02, 0x36, 0x1b, 0xe4, 0xd7, 0xfc, 0xe1,
  0x03, 0xc7, 0xf5, 0xf2, 0x4d, 0xea, 0x12, 0x81, 0x49, 0x02, 0x3c, 0x3d,
  0x27, 0xa2, 0x2e, 0xdf, 0x2d, 0x37, 0x1f, 0x2f, 0xea, 0x60, 0xeb, 0xdd,
  0x05, 0xfc, 0xea, 0x02, 0xf3, 0x07, 0xe7, 0xf0, 0xdc, 0x08, 0xd6, 0xd7,
  0x30, 0xbe, 0x26, 0x16, 0x21, 0xfa, 0x27, 0x07, 0x07, 0x7f, 0xe3, 0x33,
  0x22, 0x1e, 0x03, 0x1e, 0xd8, 0x4d, 0xc5, 0x1b, 0xe3, 0xcb, 0xd1, 0xed,
  0x2a, 0xc9, 0x32, 0xb0, 0xea, 0xe9, 0xf8, 0xf8, 0x15, 0x11, 0x23, 0x36,
  0x28, 0x04, 0x1f, 0x0c, 0xf4, 0x51, 0xfe, 0x40, 0xf9, 0xec, 0x1e, 0xf6,
  0x09, 0x11, 0x0a, 0xbf, 0xca, 0xe3, 0x05, 0x09, 0x05, 0xba, 0xe8, 0x23,
  0xd9, 0x2d, 0xd1, 0x61, 0x03, 0xaa, 0x2c, 0xf8, 0xc8, 0x32, 0x05, 0x56,
  0xa2, 0xc0, 0xa4, 0xf3, 0xf8, 0xfc, 0xd8, 0x04, 0x1d, 0x81, 0xfe, 0x42,
  0x43, 0x37, 0x0a, 0xb6, 0xb8, 0xe1, 0xc6, 0x45, 0x1c, 0x34, 0x02, 0x0d,
  0xac, 0xad, 0xcc, 0x39, 0x06, 0xb7, 0xf8, 0xcd, 0x3d, 0x48, 0xf5, 0x16,
  0xdc, 0x34, 0x46, 0xcd, 0x31, 0x6c, 0x44, 0x1a, 0x63, 0x20, 0xf3, 0xf2,
  0x17, 0x6a, 0x00, 0xfb, 0x18, 0xe5, 0x3e, 0xcc, 0x52, 0x45, 0x4e, 0x06,
  0x10, 0x16, 0x0f, 0xee, 0x24, 0x3a, 0x50, 0xe9, 0x09, 0x50, 0xfa, 0xea,
  0xea, 0xc5, 0x28, 0xf6, 0xca, 0x2a, 0x16, 0x08, 0xe7, 0xf5, 0xd1, 0xda,
  0xa5, 0x06, 0xb6, 0xd7, 0xa3, 0x00, 0xb1, 0x96, 0xd4, 0xb3, 0xcb, 0xe6,
  0xc5, 0x20, 0xde, 0xa5, 0xbc, 0xeb, 0xda, 0xd7, 0xf3, 0x07, 0xf7, 0x9a,
  0xfb, 0x18, 0x44, 0x50, 0x36, 0x33, 0xf2, 0x81, 0x0d, 0xf1, 0x55, 0x52,
  0x1b, 0x40, 0x2d, 0xad, 0x4b, 0x00, 0x4c, 0xfc, 0x07, 0xe9, 0x1b, 0x3a,
  0x1f, 0x3a, 0x15, 0x03, 0xf9, 0x03, 0xce, 0x5b, 0xeb, 0xeb, 0xec, 0x45,
  0x25, 0xd4, 0xfb, 0xff, 0xce, 0xe4, 0xef, 0x2e, 0x50, 0xe2, 0xcd, 0x78,
  0x0f, 0x13, 0xb7, 0x39, 0xf4, 0xad, 0xd1, 0x7f, 0x0d, 0x05, 0x28, 0xdb,
  0xe7, 0x00, 0x2a, 0x47, 0xc1, 0x22, 0xe3, 0x29, 0x25, 0xfa, 0x0b, 0x29,
  0xe5, 0x02, 0x3a, 0xf3, 0x23, 0x22, 0xf1, 0x6a, 0xe5, 0xd3, 0x3e, 0x43,
  0x31, 0xf0, 0x03, 0x36, 0xeb, 0x2e, 0x0e, 0x42, 0x13, 0xe0, 0x08, 0xe1,
  0xb7, 0xf2, 0xca, 0x05, 0x55, 0xe7, 0x08, 0x05, 0x11, 0x06, 0xfa, 0x21,
  0xdc, 0xfd, 0xe9, 0x2a, 0x0c, 0xf6, 0x1e, 0x09, 0x02, 0xb8, 0x25, 0xf0,
  0x81, 0xb3, 0xc3, 0x00, 0x27, 0xca, 0x2f, 0xc5, 0x21, 0x23, 0xef, 0xf4,
  0xf9, 0xd7, 0xdc, 0x14, 0x1c, 0x20, 0xeb, 0xb7, 0xf0, 0xdf, 0x22, 0xf5,
  0x93, 0xc2, 0xa8, 0x0d, 0x32, 0xb2, 0x20, 0xfb, 0xff, 0x3d, 0xf4, 0x44,
  0xd8, 0x98, 0x33, 0x64, 0x56, 0x1f, 0x11, 0xda, 0xc8, 0xb8, 0xed, 0x25,
  0xfa, 0x23, 0x08, 0xe9, 0xc5, 0xf3, 0xe8, 0x17, 0x2e, 0xbe, 0xc9, 0xe8,
  0xd4, 0x59, 0xbf, 0xdb, 0xc5, 0xa1, 0xed, 0x19, 0xe4, 0x13, 0x3e, 0xc3,
  0x2d, 0x34, 0x41, 0xd4, 0x08, 0x5a, 0x2b, 0x10, 0x6b, 0x20, 0x69, 0x4e,
  0xfd, 0x7f, 0x37, 0xaa, 0x22, 0x4b, 0x66, 0x43, 0xef, 0x09, 0xed, 0xe0,
  0xfc, 0x1d, 0x1e, 0x05, 0xf6, 0x2a, 0xfd, 0xce, 0xfa, 0x1f, 0x02, 0x17,
  0xee, 0x20, 0xd6, 0xdd, 0x0f, 0x0e, 0x18, 0x2b, 0xc2, 0xd5, 0xd2, 0xdc,
  0xcc, 0xaa, 0xe7, 0xe0, 0xf9, 0xd7, 0xed, 0xf1, 0x00, 0x28, 0x27, 0x3c,
  0x0e, 0xc1, 0x34, 0xe8, 0x02, 0x42, 0xff, 0x5d, 0x3b, 0x9d, 0x29, 0xf1,
  0x04, 0x1f, 0x04, 0x36, 0x36, 0x88, 0x36, 0xe0, 0x28, 0x4a, 0xcc, 0x0a,
  0xfb, 0x81, 0xd1, 0x1c, 0xe5, 0xf0, 0x02, 0x08, 0x3b, 0x97, 0x2f, 0x3e,
  0x0b, 0x17, 0xe9, 0x48, 0xe5, 0x97, 0x07, 0x13, 0xfe, 0x2d, 0x0e, 0x0f,
  0xd1, 0xd8, 0xfa, 0x37, 0xbe, 0xc2, 0x09, 0xd6, 0xf4, 0x8e, 0xe9, 0xf3,
  0x06, 0x0e, 0xe6, 0x13, 0x23, 0xc4, 0xe4, 0x07, 0xfd, 0xf1, 0x05, 0xe8,
  0x01, 0x0d, 0xd7, 0xfd, 0x0a, 0xe4, 0xc6, 0xf8, 0xeb, 0x4c, 0xe3, 0x02,
  0x1d, 0x10, 0x25, 0x00, 0xd3, 0x5f, 0xfd, 0xb9, 0x0b, 0xdd, 0xe2, 0x30,
  0xbe, 0x41, 0xd7, 0xe0, 0x0e, 0xd1, 0xec, 0x24, 0x0c, 0x7f, 0xf7, 0xb3,
  0x48, 0x1e, 0x5d, 0x46, 0x3f, 0x6f, 0x05, 0xcd, 0x2f, 0xf8, 0x39, 0x21,
  0x21, 0x64, 0x31, 0xe0, 0x2a, 0x29, 0x30, 0x4c, 0xec, 0xf0, 0x1b, 0x13,
  0xed, 0xec, 0x2e, 0xfb, 0x03, 0x1d, 0xe0, 0xea, 0xe1, 0xd5, 0x2c, 0xc8,
  0xe1, 0x1f, 0xf3, 0xd0, 0x19, 0xfd, 0x24, 0xeb, 0xfc, 0x81, 0xed, 0x0a,
  0xd3, 0xd8, 0x0d, 0xe8, 0x23, 0xb5, 0xe4, 0xfb, 0x42, 0xef, 0x10, 0x0c,
  0x29, 0xb6, 0xee, 0xd8, 0xe3, 0x22, 0x23, 0x41, 0x4e, 0xe0, 0x35, 0x4c,
  0xf4, 0x12, 0x05, 0x37, 0x45, 0xd6, 0xd1, 0x4c, 0xcc, 0x3e, 0xff, 0x4e,
  0xeb, 0x8e, 0xf1, 0x3f, 0x25, 0x32, 0x09, 0xf8, 0xde, 0xec, 0x3c, 0x63,
  0x06, 0x54, 0x1e, 0xe7, 0xa1, 0xc1, 0xe4, 0x44, 0xf6, 0xd2, 0x3a, 0xa3,
  0xeb, 0xbd, 0x27, 0x02, 0xc5, 0x0d, 0xd8, 0x16, 0x1e, 0xcb, 0x43, 0x21,
  0x17, 0x57, 0x57, 0xb3, 0x81, 0x90, 0xf6, 0x3b, 0xfe, 0xae, 0x05, 0x98,
  0x3e, 0xca, 0xe0, 0xd0, 0xbe, 0xed, 0x3e, 0xd6, 0x04, 0x9e, 0xef, 0x74,
  0x64, 0x06, 0x4a, 0xe6, 0x15, 0xaa, 0xeb, 0x4d, 0xf0, 0xc2, 0x15, 0x12,
  0xe8, 0xe8, 0x15, 0xde, 0xe9, 0x2a, 0x16, 0xef, 0x09, 0xd5, 0xe6, 0xf4,
  0x1c, 0x15, 0x40, 0x04, 0x1a, 0x37, 0x1d, 0xd1, 0x22, 0x29, 0x2d, 0xd9,
  0x40, 0x5a, 0xf8, 0xc8, 0x28, 0x2c, 0xe0, 0x1a, 0x42, 0xfd, 0xc8, 0xed,
  0xed, 0x17, 0x36, 0x2a, 0x4b, 0x37, 0xf7, 0xfb, 0x22, 0x0a, 0x39, 0x3e,
  0xc5, 0x29, 0xcd, 0x42, 0x39, 0xf2, 0x16, 0x13, 0xe3, 0xc3, 0xba, 0xbd,
  0x0d, 0x24, 0x14, 0xda, 0xe2, 0x1a, 0x19, 0x1b, 0xc6, 0xdd, 0xfe, 0xdd,
  0x33, 0x7f, 0x48, 0xa0, 0x29, 0x3e, 0xeb, 0x1f, 0xee, 0x93, 0x36, 0xfa,
  0xe9, 0xde, 0xf2, 0xf6, 0x18, 0xb0, 0xcb, 0x27, 0x07, 0x37, 0x20, 0x05,
  0x11, 0xb1, 0xf6, 0x04, 0xd0, 0xca, 0x2c, 0x32, 0xf9, 0xa4, 0x1d, 0x05,
  0x29, 0x1d, 0xea, 0x27, 0xf4, 0x81, 0x02, 0xf7, 0x07, 0xfd, 0x3d, 0x13,
  0xf6, 0x87, 0xf7, 0x02, 0x09, 0xf4, 0x2a, 0xf0, 0xe2, 0x04, 0xe3, 0xf8,
  0x20, 0x35, 0x03, 0x29, 0x03, 0x0c, 0x31, 0xe0, 0x40, 0x34, 0xfd, 0xd1,
  0x04, 0xd8, 0x4d, 0xee, 0x15, 0x18, 0xee, 0xf6, 0xf7, 0xf6, 0x33, 0xf9,
  0x1b, 0x2b, 0xea, 0x18, 0xf4, 0x1b, 0xf8, 0x3e, 0xe5, 0x37, 0x1b, 0x03,
  0xe9, 0xc8, 0xf5, 0x44, 0xcc, 0xfc, 0xfd, 0xb6, 0x44, 0xfd, 0x15, 0x22,
  0x27, 0x0f, 0x1f, 0x3f, 0xc7, 0xd4, 0xf3, 0x53, 0xe7, 0xee, 0x0b, 0xc8,
  0x06, 0xa0, 0xf8, 0x2f, 0xbb, 0xf6, 0x03, 0x11, 0x28, 0xb1, 0xe8, 0x21,
  0x26, 0x33, 0x13, 0x12, 0xbc, 0x81, 0xaf, 0x34, 0xce, 0xd3, 0xdb, 0xab,
  0x0b, 0xb3, 0x02, 0x04, 0xd0, 0xce, 0x03, 0x01, 0x54, 0x39, 0x40, 0x27,
  0x1a, 0x25, 0x17, 0xf3, 0x33, 0x53, 0x43, 0x12, 0x5a, 0x2f, 0x29, 0x4f,
  0x4c, 0x62, 0x2e, 0x98, 0x35, 0x46, 0x2c, 0x14, 0x21, 0xd6, 0x37, 0xf6,
  0xd7, 0x12, 0xf2, 0x0b, 0x4b, 0x41, 0x23, 0xb5, 0xcd, 0x1f, 0x12, 0x30,
  0x1d, 0xfd, 0x0b, 0xc9, 0x9a, 0x20, 0x0c, 0xf2, 0xe9, 0x7f, 0xd1, 0xea,
  0xcf, 0x8b, 0xa3, 0x9b, 0xa5, 0xe3, 0xae, 0xd1, 0x87, 0x92, 0xde, 0x85,
  0xe0, 0xeb, 0xc5, 0x14, 0xa2, 0xdb, 0xec, 0x2f, 0xf2, 0xca, 0xff, 0xff,
  0x04, 0x00, 0x00, 0x00, 0x40, 0x00, 0x00, 0x00, 0x9c, 0x07, 0x00, 0x00,
  0x83, 0x08, 0x00, 0x00, 0x23, 0xfb, 0xff, 0xff, 0xab, 0xe9, 0xff, 0xff,
  0xdd, 0x0e, 0x00, 0x00, 0xc6, 0xf7, 0xff, 0xff, 0x0b, 0xf6, 0xff, 0xff,
  0xb8, 0xf0, 0xff, 0xff, 0x83, 0xf6, 0xff, 0xff, 0x70, 0xfe, 0xff, 0xff,
  0xe7, 0x02, 0x00, 0x00, 0x0d, 0x0a, 0x00, 0x00, 0xfa, 0xf5, 0xff, 0xff,
  0xdc, 0xfe, 0xff, 0xff, 0x55, 0x09, 0x00, 0x00, 0xe8, 0x0c, 0x00, 0x00,
  0x3e, 0xcb, 0xff, 0xff, 0x04, 0x00, 0x00, 0x00, 0x00, 0x32, 0x00, 0x00,
  0xf3, 0xd2, 0x3e, 0x0d, 0x13, 0xed, 0xf4, 0xf4, 0x04, 0xf5, 0xf3, 0xde,
  0x17, 0xf2, 0x1a, 0xf3, 0x34, 0x10, 0x7a, 0x0a, 0x0b, 0xdf, 0x24, 0x18,
  0xdd, 0x02, 0xf8, 0x44, 0x0f, 0x2c, 0xfc, 0x0b, 0x1e, 0x0d, 0x55, 0xf8,
  0xdf, 0xec, 0x0c, 0xd5, 0xcd, 0x02, 0xd9, 0x08, 0xe1, 0x26, 0x21, 0xf5,
  0xfe, 0x12, 0xf5, 0xcd, 0x07, 0xfd, 0x1c, 0xe1, 0xed, 0xed, 0x10, 0xff,
  0xc2, 0xfe, 0x35, 0x10, 0x0d, 0x22, 0x16, 0x0d, 0x4d, 0x0c, 0x26, 0x06,
  0x1d, 0xf9, 0x0c, 0xee, 0xc5, 0x1d, 0x3a, 0x2a, 0x0c, 0xe0, 0x1a, 0x2e,
  0xf9, 0x0e, 0xf6, 0x0d, 0xd6, 0xdf, 0xe6, 0x0e, 0x2d, 0x01, 0xf5, 0xed,
  0x16, 0x0b, 0x42, 0x27, 0xdc, 0x09, 0x2f, 0x04, 0xd5, 0xfc, 0xe3, 0x13,
  0x06, 0xf3, 0xf0, 0xfe, 0x05, 0x36, 0xf6, 0x20, 0x32, 0xf7, 0x21, 0x0b,
  0x03, 0xc7, 0x1e, 0x3e, 0x16, 0xf5, 0x34, 0x23, 0xf9, 0x06, 0xe2, 0x13,
  0x03, 0x07, 0xf6, 0xf4, 0x1a, 0x12, 0x28, 0x13, 0xda, 0x3f, 0x01, 0xf0,
  0xd0, 0x49, 0xbc, 0xfe, 0x16, 0x10, 0xf1, 0x1c, 0xff, 0x0a, 0xee, 0x30,
  0xf0, 0xf6, 0x2b, 0x05, 0x0f, 0x03, 0x0e, 0xce, 0x01, 0xd4, 0xdf, 0xd1,
  0x23, 0x12, 0x27, 0xf2, 0xe3, 0xeb, 0x19, 0x26, 0xf8, 0x29, 0xe0, 0xdb,
  0x0c, 0xd5, 0x11, 0xf3, 0x1b, 0xe3, 0x2a, 0x2f, 0xef, 0x23, 0x46, 0x2e,
  0x21, 0x33, 0xda, 0xfc, 0x3a, 0xf2, 0xe9, 0xf6, 0x10, 0x1f, 0xf9, 0x5c,
  0xe0, 0xf4, 0x66, 0x17, 0x04, 0xee, 0x11, 0xee, 0xde, 0x1c, 0xf7, 0xf9,
  0x0a, 0xca, 0xfb, 0xf5, 0x16, 0x05, 0x16, 0xf6, 0x31, 0xcc, 0xd4, 0x11,
  0x03, 0xf8, 0xe5, 0x29, 0xf6, 0x3a, 0xf2, 0x2c, 0x1c, 0x1b, 0x18, 0xf4,
  0x2d, 0xf6, 0x40, 0xf1, 0x08, 0xb8, 0xdd, 0x13, 0x09, 0x2c, 0x10, 0xd9,
  0x24, 0xf7, 0x05, 0x51, 0x41, 0x15, 0x0a, 0xfa, 0x20, 0xc2, 0xd9, 0xf3,
  0xde, 0x41, 0xc3, 0x0e, 0xfa, 0xf6, 0x65, 0x55, 0x25, 0x05, 0x0a, 0xe4,
  0x29, 0xe6, 0x03, 0x1f, 0xe7, 0xf8, 0xe6, 0xea, 0x04, 0xbf, 0x2f, 0x00,
  0x05, 0x0c, 0xd2, 0x04, 0x23, 0x05, 0x26, 0xd1, 0x13, 0x05, 0x0c, 0xec,
  0xf0, 0x33, 0xed, 0xfd, 0xf1, 0x05, 0xea, 0x12, 0x29, 0xe2, 0x37, 0x05,
  0xed, 0xf3, 0xf1, 0xdc, 0xe5, 0xf0, 0xf2, 0x1f, 0x5d, 0xeb, 0xe6, 0xd9,
  0x10, 0xed, 0xcc, 0x02, 0xfc, 0x45, 0x29, 0x0a, 0xdd, 0xf2, 0xf3, 0xc8,
  0x1f, 0x1b, 0x91, 0xe8, 0x2b, 0xd3, 0xc5, 0xe6, 0x1d, 0xd0, 0x20, 0x2f,
  0x05, 0xff, 0x7f, 0xf2, 0xec, 0x2b, 0x45, 0xed, 0x3d, 0xcb, 0x2a, 0xbf,
  0x0f, 0xa4, 0x02, 0x3e, 0xda, 0x01, 0x3e, 0xdf, 0x0e, 0x4e, 0x27, 0x13,
  0xdb, 0x0a, 0x0e, 0xd7, 0x12, 0xdb, 0xde, 0x1d, 0x15, 0xf4, 0xea, 0xd5,
  0xd8, 0xe8, 0xd3, 0x03, 0x2d, 0x0c, 0x19, 0xf0, 0x05, 0xf7, 0xfb, 0xf4,
  0x0f, 0x2b, 0x09, 0x2f, 0xff, 0xe7, 0x18, 0xbc, 0xd1, 0x0d, 0xc2, 0xc4,
  0x02, 0xc5, 0xd1, 0x36, 0xae, 0xc3, 0x1f, 0xd1, 0x21, 0xcc, 0xb9, 0xc1,
  0x1f, 0xe9, 0x05, 0xd4, 0x3b, 0xec, 0xe5, 0xef, 0x12, 0xbe, 0x16, 0x05,
  0x09, 0x4f, 0xd4, 0x12, 0xde, 0x00, 0x24, 0x0f, 0x38, 0x06, 0x31, 0x0d,
  0xce, 0xfe, 0x32, 0xd6, 0x06, 0x13, 0x22, 0x2a, 0x2a, 0x10, 0x30, 0xd1,
  0x12, 0x24, 0x0f, 0xcf, 0xee, 0x07, 0x36, 0x1f, 0x1f, 0x32, 0x1e, 0xd4,
  0x22, 0x30, 0x2a, 0x1c, 0xf7, 0xdb, 0xe1, 0xe8, 0x18, 0x12, 0x29, 0x2b,
  0xe2, 0x21, 0xe6, 0xd4, 0x0e, 0xff, 0xe1, 0xeb, 0xf2, 0x2b, 0xc1, 0x42,
  0xea, 0xe0, 0x2f, 0xc1, 0x17, 0x07, 0xf2, 0x29, 0xe0, 0x14, 0x3d, 0x16,
  0x33, 0xf1, 0xff, 0x3a, 0xec, 0x11, 0x3d, 0xc4, 0xed, 0x2e, 0x22, 0xfa,
  0xda, 0x44, 0xfd, 0xf3, 0x05, 0xff, 0x2e, 0x0b, 0xe7, 0x23, 0xef, 0xa8,
  0xdf, 0xe1, 0x20, 0x0b, 0x13, 0x1a, 0xea, 0xe1, 0xec, 0xef, 0x40, 0xeb,
  0x20, 0xf4, 0xfc, 0xb1, 0x2c, 0x01, 0x3f, 0x1b, 0x47, 0x2b, 0x0f, 0xbc,
  0x04, 0x04, 0xe3, 0xfb, 0x08, 0xcb, 0x24, 0x1e, 0x06, 0x0b, 0x20, 0xf3,
  0xee, 0x54, 0x18, 0x2b, 0x0a, 0x45, 0xdf, 0x2d, 0x44, 0x24, 0x0a, 0xf0,
  0x19, 0x1f, 0x37, 0x56, 0x8a, 0x56, 0x50, 0x23, 0xf0, 0xef, 0x39, 0xf6,
  0x2a, 0x36, 0xc0, 0xc8, 0x41, 0xbb, 0xe8, 0x00, 0x0c, 0x38, 0xea, 0x5b,
  0xb8, 0x0e, 0xf1, 0x93, 0x07, 0xf2, 0xb1, 0x07, 0x4a, 0x08, 0x2d, 0x23,
  0xca, 0xfc, 0xeb, 0x25, 0x05, 0xf3, 0x39, 0xe8, 0xdd, 0x4b, 0x0b, 0xbe,
  0x03, 0xf4, 0x59, 0xed, 0xc2, 0x24, 0x0e, 0x3d, 0x15, 0x27, 0xca, 0x49,
  0x0e, 0xeb, 0x28, 0xea, 0xf7, 0x0a, 0x06, 0xda, 0xe3, 0xe3, 0x0a, 0xee,
  0x20, 0x35, 0xdc, 0x1c, 0xfa, 0x0e, 0xef, 0x49, 0x2a, 0x94, 0xfc, 0xd8,
  0x23, 0x25, 0xeb, 0x4c, 0xd1, 0x2d, 0xd9, 0xe9, 0x17, 0x02, 0xc7, 0x46,
  0x04, 0x15, 0x48, 0xdb, 0x35, 0xdc, 0xf5, 0x09, 0xf4, 0xd6, 0xe5, 0xf8,
  0xef, 0xf1, 0xd6, 0x78, 0xbf, 0xe8, 0xbd, 0x23, 0xf0, 0xd9, 0x36, 0xb1,
  0xde, 0xb2, 0x0f, 0x04, 0xe2, 0x08, 0x25, 0x04, 0x0f, 0x16, 0x99, 0x0b,
  0x15, 0x3a, 0xfc, 0x3c, 0xce, 0x1d, 0xf3, 0x1a, 0xe3, 0xf5, 0xc5, 0xf6,
  0x14, 0xdc, 0xf3, 0xd1, 0xf5, 0x21, 0xf5, 0xbe, 0x1a, 0xe6, 0xca, 0x04,
  0xd1, 0xbb, 0x5e, 0x04, 0x15, 0xb3, 0x81, 0xc4, 0x5b, 0x05, 0xd7, 0xe3,
  0xf1, 0xcd, 0x12, 0xfe, 0xcd, 0xb6, 0x4d, 0x1a, 0xce, 0xe6, 0x1e, 0x0a,
  0x21, 0xb4, 0xf1, 0xae, 0x37, 0xcc, 0x03, 0x45, 0xde, 0x8b, 0x43, 0x18,
  0xa6, 0x35, 0x20, 0x04, 0xb6, 0x27, 0x36, 0xa4, 0xd6, 0xd1, 0xb0, 0x0e,
  0xf1, 0x06, 0x1c, 0xfe, 0x75, 0x2e, 0x3f, 0xeb, 0xe2, 0x09, 0x54, 0x55,
  0xe1, 0x54, 0x08, 0xcf, 0x02, 0x40, 0x97, 0x07, 0xea, 0x14, 0x1c, 0xc8,
  0xea, 0x10, 0xe8, 0xdb, 0x13, 0xea, 0x05, 0x2c, 0xd8, 0xee, 0x11, 0xfe,
  0x12, 0x22, 0x05, 0x24, 0x11, 0xcf, 0xe7, 0xfa, 0xf0, 0xff, 0x24, 0xf8,
  0xe0, 0xe0, 0x09, 0xe9, 0x25, 0x29, 0xfb, 0x04, 0xf1, 0x2e, 0xe9, 0x1b,
  0x22, 0xe2, 0x07, 0xe5, 0x3d, 0x2b, 0xd8, 0xdd, 0xf2, 0x1b, 0x0a, 0x29,
  0xf3, 0xed, 0x32, 0x09, 0xed, 0xf5, 0x2e, 0xfb, 0x1f, 0xe8, 0xcb, 0x24,
  0x0a, 0x0f, 0x12, 0x11, 0x07, 0x4f, 0xe5, 0xfa, 0xf2, 0xf3, 0xfe, 0xff,
  0x3f, 0xf8, 0xfd, 0x37, 0xe1, 0x2e, 0xf3, 0xff, 0x11, 0x1e, 0x21, 0x09,
  0xf7, 0x18, 0xec, 0x1c, 0x19, 0x16, 0x0c, 0xd8, 0xd6, 0xe1, 0xf5, 0x0d,
  0xb4, 0xd4, 0xfe, 0xe6, 0xdb, 0x08, 0xba, 0xc5, 0x0d, 0x1f, 0x15, 0x13,
  0xff, 0xf7, 0xfe, 0x1c, 0x17, 0x06, 0x2a, 0x16, 0xfc, 0x2a, 0x04, 0x10,
  0xf2, 0xc3, 0x0d, 0x1c, 0x0f, 0xa5, 0x13, 0x24, 0xe2, 0xee, 0x0d, 0x04,
  0xd3, 0xd9, 0xa7, 0xb9, 0x16, 0xd4, 0xbd, 0x3b, 0x0d, 0x02, 0x11, 0xd3,
  0x2e, 0x00, 0xf2, 0x01, 0xe2, 0xfc, 0xd7, 0x02, 0x2e, 0xde, 0xd0, 0x59,
  0x66, 0x24, 0xe9, 0x05, 0xde, 0x1f, 0x21, 0xef, 0xea, 0x09, 0x1f, 0x11,
  0xf4, 0xe4, 0xf9, 0x1c, 0x3c, 0xf0, 0x20, 0xd8, 0x2a, 0xf7, 0x01, 0xd3,
  0x0f, 0x2f, 0x05, 0xd3, 0xe6, 0xd1, 0xce, 0x2f, 0x17, 0x12, 0x7f, 0x21,
  0xb4, 0xfa, 0x50, 0xc4, 0x08, 0xfd, 0x40, 0xfa, 0x00, 0xcc, 0xf2, 0xdd,
  0x06, 0x19, 0x51, 0x09, 0x27, 0x12, 0xed, 0xf2, 0xd4, 0xca, 0x10, 0xde,
  0x0d, 0xda, 0x0b, 0x23, 0xcb, 0x2c, 0x0e, 0x14, 0xfa, 0xed, 0x13, 0x05,
  0xfb, 0xc5, 0xf5, 0xf2, 0x2e, 0xd5, 0x09, 0x19, 0x21, 0x00, 0xea, 0xe3,
  0x1c, 0x48, 0x39, 0x4d, 0x0f, 0x38, 0x22, 0xd7, 0x16, 0x08, 0xef, 0xe2,
  0xda, 0x1b, 0xe4, 0xf8, 0x12, 0x45, 0x15, 0x0d, 0x40, 0xf4, 0x0f, 0xf6,
  0x18, 0x22, 0x36, 0xe3, 0xd0, 0x14, 0x00, 0x22, 0xc2, 0x00, 0x23, 0x12,
  0x4f, 0xe5, 0x19, 0x48, 0xfa, 0x4d, 0x6a, 0xb3, 0x39, 0xf5, 0x00, 0xe3,
  0xf0, 0x2e, 0x07, 0x2f, 0xd8, 0x0f, 0x2d, 0x39, 0xfb, 0xf1, 0x06, 0xe1,
  0x16, 0xed, 0x4c, 0xcd, 0x5f, 0x0c, 0x01, 0x3c, 0x13, 0x0a, 0x37, 0xdf,
  0xe5, 0xe5, 0xe4, 0x03, 0xaa, 0x2e, 0x32, 0x60, 0xd2, 0x0e, 0xfc, 0xc8,
  0x15, 0xd4, 0x07, 0xbe, 0x20, 0x0d, 0x29, 0x3a, 0xdf, 0x02, 0x5b, 0x22,
  0x86, 0x2d, 0x03, 0xf3, 0x20, 0xf3, 0x22, 0xf2, 0x09, 0x4c, 0xfa, 0xec,
  0x14, 0xe8, 0x03, 0x15, 0x92, 0x00, 0xf8, 0x3c, 0xfc, 0x76, 0x07, 0xdf,
  0x1a, 0x4b, 0xcb, 0xe3, 0x2c, 0xf3, 0xe8, 0x20, 0xeb, 0x03, 0xb9, 0x75,
  0x04, 0x5b, 0x24, 0xfe, 0xf8, 0x1f, 0xe3, 0x28, 0x26, 0x07, 0x39, 0x3d,
  0x44, 0x06, 0xd8, 0x11, 0x2c, 0x2a, 0x0d, 0xe2, 0x23, 0xee, 0xef, 0x45,
  0xf4, 0x3d, 0x02, 0x0b, 0xe9, 0xf1, 0x06, 0xef, 0xf7, 0x24, 0x38, 0xe9,
  0x07, 0x1a, 0x20, 0x03, 0xfc, 0xe4, 0x06, 0x28, 0x0d, 0x1a, 0xd5, 0x19,
  0x09, 0x0e, 0xe8, 0xda, 0xf2, 0x2a, 0x2f, 0x1e, 0xd1, 0xe4, 0x81, 0xec,
  0xfe, 0x02, 0xec, 0xf1, 0xfb, 0x2e, 0xe8, 0xf7, 0x47, 0x06, 0x58, 0x0d,
  0x0f, 0x54, 0xbc, 0x2a, 0x2b, 0x22, 0xc9, 0xfd, 0xdc, 0xff, 0xf3, 0xec,
  0x29, 0xeb, 0x35, 0xef, 0xe0, 0xb4, 0x1c, 0x1a, 0xf2, 0x1d, 0xed, 0x3d,
  0x26, 0x2f, 0x26, 0x1b, 0x33, 0x44, 0x3b, 0x5d, 0xc3, 0x32, 0xf1, 0x39,
  0xb5, 0x38, 0x0c, 0xd7, 0xeb, 0xd9, 0xf1, 0x3c, 0xe6, 0x2d, 0xf8, 0xde,
  0xdc, 0xc6, 0xe4, 0xf0, 0xe7, 0x4b, 0x3c, 0x3b, 0x3d, 0xd4, 0x20, 0xf2,
  0xf6, 0xd5, 0x14, 0xd8, 0xea, 0xe9, 0xff, 0x09, 0xec, 0x36, 0x21, 0x2e,
  0x0a, 0x33, 0x33, 0xe5, 0x05, 0x01, 0xe1, 0xd7, 0xd8, 0xfc, 0xcc, 0x05,
  0x7b, 0x1b, 0x9f, 0x2a, 0x13, 0x43, 0x3a, 0xe5, 0xf6, 0xe5, 0xf4, 0x35,
  0x4a, 0xe6, 0xcb, 0xf6, 0x35, 0xbc, 0x05, 0xe5, 0x06, 0x4d, 0x26, 0x1a,
  0x21, 0xdf, 0xd9, 0x6a, 0xcd, 0xdb, 0x19, 0xfd, 0xeb, 0x2e, 0x14, 0x9a,
  0xb3, 0xda, 0x01, 0x10, 0xe0, 0xf6, 0x11, 0x01, 0xb4, 0x29, 0x1c, 0x24,
  0xbb, 0x5d, 0x17, 0x2d, 0x04, 0x1c, 0xf9, 0x05, 0xe2, 0x1c, 0xfc, 0xd9,
  0xe3, 0x29, 0xce, 0xdf, 0xb9, 0x3c, 0x2e, 0x39, 0xe3, 0xf5, 0x22, 0xea,
  0x07, 0x27, 0xe2, 0xdb, 0x14, 0x96, 0x17, 0x20, 0x27, 0xe0, 0xeb, 0x15,
  0x24, 0x39, 0x3b, 0xef, 0x4b, 0xf6, 0x0b, 0x19, 0x27, 0xa3, 0x62, 0x22,
  0x08, 0xb7, 0x25, 0xdb, 0xec, 0xe4, 0xec, 0xde, 0xfd, 0xec, 0xcd, 0x2e,
  0x0b, 0x08, 0x2c, 0xe4, 0x0f, 0xf5, 0x16, 0xf2, 0xb4, 0xe8, 0x0a, 0x37,
  0xf4, 0x12, 0x01, 0x20, 0xfe, 0x2c, 0x51, 0xda, 0xda, 0xfb, 0xf8, 0x2e,
  0x04, 0x05, 0x13, 0x49, 0x3c, 0xe9, 0x2a, 0xc5, 0xcc, 0xe7, 0x28, 0xf4,
  0x03, 0xd5, 0x48, 0xf2, 0x3e, 0xca, 0xdb, 0xde, 0x40, 0xf1, 0x12, 0x2f,
  0x08, 0xf3, 0x4e, 0xe2, 0x20, 0xea, 0x1b, 0xe0, 0xc2, 0x31, 0xd3, 0x12,
  0x46, 0x01, 0x14, 0xd2, 0xda, 0xd2, 0x6e, 0x16, 0x94, 0xe3, 0x03, 0x04,
  0xfe, 0xe9, 0xee, 0x0a, 0xf9, 0x00, 0x21, 0xa4, 0x12, 0xd9, 0x00, 0xd0,
  0xe8, 0x06, 0xce, 0x00, 0xca, 0x10, 0x38, 0x26, 0x09, 0xff, 0xbe, 0xdf,
  0xd3, 0xce, 0x59, 0x11, 0xe6, 0xf2, 0x21, 0x26, 0xeb, 0x18, 0x13, 0xc7,
  0xf8, 0xea, 0xf6, 0x44, 0xeb, 0x16, 0x17, 0x3f, 0xc1, 0x32, 0x19, 0x1e,
  0xd4, 0x01, 0x06, 0xbb, 0x1c, 0x05, 0xd8, 0x20, 0x15, 0x15, 0x0e, 0xe7,
  0x26, 0x2b, 0x2e, 0xf6, 0x28, 0x15, 0x38, 0x02, 0xf0, 0x17, 0xd9, 0x11,
  0xad, 0x45, 0xbe, 0x35, 0x92, 0x34, 0xfc, 0xd1, 0x48, 0xc5, 0x0f, 0x12,
  0xce, 0x05, 0x3a, 0xf3, 0x27, 0xf8, 0xe5, 0x44, 0x2a, 0x12, 0x03, 0x28,
  0xf2, 0x23, 0x28, 0xff, 0xf1, 0x10, 0x33, 0x42, 0x22, 0x16, 0xfe, 0xda,
  0x1e, 0xcc, 0x09, 0x0c, 0xcc, 0xee, 0xe0, 0xb6, 0xef, 0xef, 0xc4, 0x06,
  0x2c, 0x3a, 0xff, 0x07, 0x47, 0xff, 0xe7, 0x28, 0x00, 0x43, 0x22, 0xdf,
  0x1d, 0xf1, 0xb2, 0x2d, 0x15, 0x32, 0xf3, 0x35, 0x26, 0xd6, 0xe6, 0x1b,
  0xee, 0x28, 0x12, 0x1b, 0xfb, 0x16, 0xf3, 0xda, 0x27, 0xcc, 0x12, 0x18,
  0xe1, 0xcb, 0xd4, 0x2c, 0x19, 0xeb, 0x06, 0xee, 0x26, 0x09, 0xba, 0x8c,
  0xdb, 0xcd, 0x1e, 0xff, 0x21, 0x0a, 0xf8, 0x29, 0x1c, 0x2e, 0xf5, 0x0e,
  0xd8, 0xdf, 0xfc, 0x46, 0xdf, 0x22, 0x92, 0xdf, 0x4b, 0x01, 0xf5, 0x03,
  0xdc, 0x21, 0x36, 0xf3, 0x01, 0x0c, 0xde, 0x6f, 0xde, 0x16, 0x03, 0xd2,
  0x52, 0xc5, 0x02, 0x11, 0xd0, 0xd7, 0x35, 0xb2, 0x17, 0xf8, 0xb7, 0x08,
  0x2f, 0x23, 0x43, 0x33, 0xe9, 0xbd, 0x25, 0x17, 0xe2, 0xf5, 0xe0, 0x04,
  0x49, 0x02, 0xf3, 0xe3, 0xf1, 0xc7, 0xe8, 0x30, 0x81, 0x19, 0x0d, 0x03,
  0xf9, 0xe2, 0xf5, 0x22, 0x1a, 0x19, 0xf7, 0xb3, 0x18, 0x06, 0xef, 0x32,
  0xfe, 0x2f, 0x1d, 0x0b, 0x1f, 0xf7, 0xf3, 0x0f, 0xdf, 0x0f, 0x4d, 0x11,
  0xcb, 0x14, 0x40, 0x02, 0xf5, 0x2b, 0xec, 0xed, 0x05, 0xe3, 0xe7, 0x48,
  0x14, 0xfb, 0x23, 0x0d, 0xf4, 0x15, 0xe4, 0xd7, 0x12, 0x06, 0x08, 0xda,
  0x33, 0xaf, 0x16, 0xd2, 0x35, 0x19, 0xc5, 0x3e, 0xb6, 0xe0, 0x1f, 0xfe,
  0xf2, 0xf8, 0xec, 0xf9, 0x0d, 0xcb, 0xc4, 0x33, 0xec, 0xe2, 0x0a, 0xe3,
  0xb8, 0x1a, 0xe1, 0x0c, 0xd6, 0x2a, 0xfd, 0xc3, 0x1c, 0xdd, 0x10, 0x2a,
  0xe0, 0xee, 0x0e, 0xea, 0xf9, 0xec, 0x07, 0x47, 0x0d, 0x20, 0xea, 0x1e,
  0xcb, 0x09, 0x2d, 0x22, 0xcf, 0x18, 0x20, 0xf9, 0x67, 0xf7, 0x43, 0xdd,
  0xea, 0xff, 0x08, 0x03, 0xb3, 0x39, 0xe7, 0x10, 0xd6, 0x0e, 0xee, 0xe5,
  0x3f, 0xf7, 0x71, 0xd7, 0x45, 0xf2, 0x29, 0xd3, 0xc5, 0xed, 0x12, 0x00,
  0x1c, 0x09, 0xf6, 0x4f, 0xec, 0x3f, 0x0f, 0xed, 0xeb, 0xfd, 0x07, 0x02,
  0x03, 0x1e, 0xfd, 0x12, 0xe2, 0x3c, 0x53, 0xdc, 0xe2, 0x25, 0xb9, 0xfb,
  0xd6, 0xda, 0xec, 0xe5, 0x4a, 0xb7, 0x1c, 0x04, 0xe5, 0xea, 0xf9, 0xaa,
  0x71, 0xf9, 0xea, 0x01, 0x4c, 0x40, 0x19, 0x4d, 0xeb, 0x33, 0x2b, 0x34,
  0x09, 0xfd, 0xe7, 0x37, 0x2e, 0x1b, 0x0c, 0xf5, 0x3d, 0xec, 0x06, 0x00,
  0x13, 0x4a, 0x36, 0xd5, 0x06, 0xe7, 0xf6, 0x21, 0x31, 0x52, 0xff, 0x26,
  0x6e, 0xf5, 0xe7, 0x33, 0xff, 0x33, 0x2d, 0x2c, 0x2a, 0x11, 0xf2, 0xf2,
  0x01, 0x2a, 0xe0, 0x26, 0x19, 0xdc, 0x2c, 0x19, 0x00, 0x25, 0x1f, 0x10,
  0xe0, 0xf9, 0x08, 0x25, 0xf7, 0x47, 0x03, 0x02, 0xc4, 0xed, 0x29, 0xed,
  0x3f, 0xf8, 0x39, 0x20, 0xee, 0x0c, 0x00, 0xf4, 0xe9, 0x11, 0x17, 0xd9,
  0xf0, 0xef, 0x26, 0xfe, 0xe0, 0xd6, 0x21, 0x24, 0x31, 0x29, 0x0c, 0x0a,
  0xea, 0xdf, 0x55, 0xef, 0x08, 0xfa, 0x25, 0x12, 0xd8, 0xf6, 0x10, 0xf4,
  0xf5, 0xd1, 0xeb, 0xa3, 0xf5, 0x2b, 0x43, 0x33, 0xca, 0x31, 0x41, 0xdf,
  0xe6, 0x26, 0xe5, 0xf6, 0x1e, 0x22, 0x2c, 0xb6, 0x34, 0xf3, 0xd2, 0xe6,
  0xdf, 0xfc, 0x1b, 0xf8, 0x32, 0xf7, 0xe8, 0x16, 0xea, 0x17, 0xed, 0xff,
  0x02, 0x56, 0x03, 0xf6, 0x45, 0x32, 0x28, 0xf9, 0x09, 0xf8, 0xf3, 0xf1,
  0xf6, 0x37, 0xd3, 0x1e, 0x17, 0xf2, 0x12, 0x39, 0xea, 0xfb, 0xe9, 0x09,
  0xb0, 0x00, 0x18, 0x12, 0x30, 0x21, 0xd9, 0xae, 0xf7, 0xfe, 0x6c, 0x43,
  0xb9, 0xf2, 0x3e, 0xe0, 0x08, 0x04, 0x01, 0x24, 0x29, 0x03, 0x00, 0xa6,
  0x56, 0xe8, 0x37, 0x09, 0xb8, 0xf0, 0x2a, 0x01, 0xf8, 0xeb, 0xee, 0x43,
  0x19, 0x0d, 0xf1, 0xe8, 0x0d, 0xdc, 0xdd, 0xfd, 0xf8, 0x17, 0xc6, 0x3f,
  0xef, 0x36, 0xcc, 0xec, 0xdf, 0x06, 0xeb, 0x3a, 0xec, 0x1a, 0x0c, 0x15,
  0x3a, 0x11, 0xd4, 0x33, 0xf7, 0xf1, 0x02, 0xe2, 0x2b, 0xfe, 0x0c, 0x2b,
  0x2a, 0x1f, 0x0e, 0x1c, 0xdf, 0x24, 0x2d, 0xe1, 0xe0, 0x28, 0xf8, 0xfd,
  0x3c, 0x06, 0xd9, 0xfc, 0x12, 0x04, 0x35, 0x25, 0xb3, 0x04, 0x1c, 0x00,
  0x1e, 0xdb, 0x33, 0xec, 0x1a, 0x12, 0x04, 0xcd, 0xdf, 0xee, 0x75, 0x0e,
  0x89, 0xee, 0x02, 0x0b, 0xfe, 0xdc, 0xdd, 0x48, 0xdc, 0x0f, 0x5d, 0xf7,
  0xca, 0x18, 0x10, 0xd5, 0xc9, 0x28, 0xdf, 0xcf, 0xd1, 0xc9, 0xdb, 0xec,
  0x03, 0xde, 0x0b, 0xf1, 0x07, 0xf6, 0x0e, 0xf9, 0x1a, 0x0a, 0xf3, 0x1f,
  0xcf, 0xef, 0x2b, 0xd7, 0x14, 0xf3, 0x09, 0x0a, 0x0b, 0x01, 0xea, 0x28,
  0x22, 0x1f, 0x36, 0x09, 0x56, 0x04, 0x1b, 0xdb, 0x30, 0x2e, 0x48, 0xfe,
  0xe5, 0x4d, 0xdb, 0x3e, 0x2c, 0xfa, 0xf5, 0xd7, 0x51, 0xc0, 0xf9, 0x31,
  0x2d, 0x2e, 0x4f, 0xc8, 0xb9, 0x09, 0xed, 0x01, 0xd0, 0xf8, 0x40, 0xf0,
  0x23, 0xd9, 0xf7, 0x7f, 0xf4, 0x0d, 0x40, 0xd1, 0x05, 0x20, 0x07, 0x09,
  0xe1, 0x1c, 0xe0, 0x04, 0xd9, 0xe1, 0xe6, 0x1c, 0x07, 0x12, 0x13, 0x21,
  0xfa, 0x19, 0x31, 0x2f, 0x12, 0xf9, 0x1a, 0x08, 0xf8, 0x29, 0x2d, 0x1a,
  0x0d, 0xe2, 0x09, 0x1d, 0xca, 0x31, 0xf7, 0x35, 0xe6, 0xfe, 0x28, 0x0c,
  0xf3, 0xc7, 0x1b, 0x12, 0x21, 0x31, 0x26, 0xe3, 0xcb, 0xf6, 0x34, 0x1d,
  0xaa, 0x21, 0xe6, 0x28, 0xe8, 0x1e, 0xfe, 0x26, 0x31, 0x24, 0x1e, 0xca,
  0x31, 0x01, 0x1b, 0xf2, 0xc9, 0x1f, 0x20, 0x54, 0xd4, 0x29, 0x1a, 0x25,
  0xf6, 0x36, 0xb1, 0xbb, 0x01, 0xdf, 0x23, 0x03, 0x10, 0x24, 0xe9, 0x23,
  0x1d, 0x3f, 0x0d, 0xcf, 0xf7, 0x11, 0x15, 0xd7, 0x03, 0x5c, 0x19, 0xea,
  0x11, 0x21, 0xe9, 0x07, 0x2f, 0xc6, 0x3f, 0x1f, 0x3b, 0x1f, 0x08, 0xfd,
  0x02, 0x0d, 0x0e, 0x17, 0x30, 0xd2, 0xe9, 0x0b, 0x26, 0x11, 0x1a, 0xe3,
  0x0d, 0x32, 0x08, 0x35, 0xee, 0x16, 0x12, 0xc9, 0x18, 0x08, 0xc9, 0x08,
  0x13, 0xca, 0xe0, 0x2b, 0xfe, 0xbf, 0x29, 0x5c, 0xe3, 0xe9, 0x39, 0xec,
  0x05, 0x48, 0x2a, 0xc4, 0xfe, 0xf4, 0x2a, 0x3f, 0x02, 0x16, 0x5a, 0xcf,
  0xd4, 0xf8, 0x54, 0x38, 0xc0, 0x3e, 0x25, 0xf1, 0xe8, 0xe2, 0x02, 0x1f,
  0xe7, 0xe7, 0xe1, 0xd5, 0x15, 0xd0, 0x33, 0x13, 0x83, 0x0e, 0x4c, 0x25,
  0x22, 0xdf, 0xfb, 0x18, 0xf7, 0x0f, 0xf3, 0xbe, 0x27, 0xfa, 0xb2, 0x0b,
  0x53, 0x4e, 0x07, 0x01, 0x3c, 0x1f, 0x0f, 0xf7, 0x1d, 0x3d, 0x3c, 0x0a,
  0xdd, 0x1f, 0x14, 0x20, 0x05, 0xf4, 0x15, 0x35, 0x26, 0x18, 0x3d, 0x29,
  0x27, 0x27, 0x2a, 0x24, 0xe3, 0x37, 0x46, 0x02, 0x06, 0x45, 0x2b, 0xda,
  0x2e, 0xe8, 0x2f, 0xfc, 0x1d, 0x02, 0x18, 0xe7, 0xf7, 0x35, 0x62, 0x05,
  0xbe, 0x6a, 0x17, 0xef, 0x2a, 0xd8, 0x44, 0x4b, 0xfb, 0x1d, 0x33, 0xa1,
  0xe0, 0x3d, 0x24, 0x18, 0x81, 0x4f, 0x66, 0xe3, 0x10, 0xdb, 0x63, 0x1d,
  0xf7, 0x38, 0x2e, 0xc9, 0xa9, 0x05, 0xea, 0x42, 0xd1, 0x1c, 0x20, 0x10,
  0x23, 0xfe, 0xef, 0x14, 0x1d, 0xfe, 0xf7, 0xfd, 0xbf, 0xf0, 0x26, 0x03,
  0xbf, 0xff, 0x31, 0x2a, 0x35, 0xe4, 0x24, 0x6b, 0x29, 0x18, 0x13, 0xd1,
  0xd2, 0x2b, 0x30, 0x0c, 0x07, 0x22, 0x05, 0x15, 0x26, 0xf9, 0xf4, 0xfe,
  0xff, 0x39, 0xef, 0x02, 0xa1, 0x4b, 0xe9, 0x11, 0xf0, 0x21, 0xe6, 0x27,
  0x25, 0x0c, 0x27, 0xf9, 0xef, 0x03, 0x2a, 0x00, 0xae, 0x5d, 0xf5, 0x3d,
  0xcd, 0x3b, 0x3b, 0x0f, 0x2e, 0xdd, 0x32, 0x0e, 0x4c, 0x22, 0x48, 0xf8,
  0xda, 0x16, 0x11, 0x2b, 0xdc, 0xf2, 0x2d, 0xbb, 0x23, 0xa9, 0xfc, 0x20,
  0x02, 0xf0, 0x0c, 0x00, 0xac, 0xe9, 0x00, 0x47, 0xc7, 0x1e, 0x13, 0x03,
  0x0a, 0xfe, 0xd8, 0x26, 0x27, 0x08, 0xe4, 0x0a, 0xfb, 0xfc, 0xf2, 0x1c,
  0xf4, 0x20, 0x3f, 0x06, 0x30, 0xe8, 0x00, 0xe7, 0x39, 0x2b, 0xe0, 0x41,
  0xdd, 0x01, 0x00, 0xf0, 0xea, 0x07, 0x23, 0x2b, 0x26, 0x24, 0x1d, 0xff,
  0x47, 0x33, 0x16, 0x14, 0xde, 0xfc, 0xe9, 0x25, 0x52, 0xfc, 0xe3, 0xfc,
  0x27, 0x0f, 0xed, 0xee, 0xfa, 0x1e, 0x23, 0x3f, 0xb7, 0x0c, 0x0a, 0x13,
  0xd2, 0x33, 0x08, 0x06, 0x13, 0xc7, 0x00, 0x0a, 0x31, 0x07, 0xd3, 0x34,
  0xb4, 0xce, 0x20, 0x37, 0xc7, 0x15, 0xf3, 0xe8, 0xdc, 0xc0, 0x04, 0x21,
  0x02, 0xf7, 0xf4, 0xee, 0xf7, 0xbf, 0x1a, 0x27, 0xf5, 0x42, 0xe5, 0x1b,
  0xed, 0x08, 0xe1, 0x4e, 0xf0, 0x20, 0x1b, 0xff, 0x18, 0xdd, 0x1b, 0x10,
  0x0e, 0x2a, 0xeb, 0x17, 0xd9, 0x06, 0x09, 0xfa, 0x15, 0xe8, 0x03, 0x05,
  0x13, 0xd2, 0x2f, 0xeb, 0x0d, 0x19, 0x27, 0x18, 0xf8, 0xfe, 0xfd, 0x1c,
  0xf0, 0x19, 0x1e, 0x30, 0x0c, 0xeb, 0xe2, 0x05, 0x20, 0xee, 0xdf, 0x13,
  0x1c, 0xd4, 0x21, 0x0d, 0xf9, 0xfa, 0x0e, 0x18, 0x0e, 0x1c, 0x81, 0xfe,
  0x31, 0x00, 0x10, 0xfc, 0x34, 0x02, 0x04, 0xca, 0x1f, 0xe9, 0x15, 0x17,
  0x07, 0xee, 0xc4, 0xea, 0x19, 0xf7, 0x02, 0x13, 0x12, 0xf7, 0x1d, 0xf3,
  0x02, 0x24, 0xd5, 0x0d, 0x14, 0xf8, 0xdd, 0x12, 0x10, 0x03, 0xe7, 0x0a,
  0xfc, 0xf5, 0xef, 0xb3, 0x15, 0x1a, 0xc8, 0x10, 0xf9, 0xc7, 0x03, 0xef,
  0x1d, 0x20, 0xec, 0xfb, 0xde, 0x17, 0xdf, 0x1e, 0x1b, 0xe2, 0xed, 0x56,
  0xe4, 0xfd, 0xda, 0xf9, 0x0b, 0x1d, 0xe4, 0xe3, 0x38, 0x0c, 0x2c, 0x00,
  0xf3, 0x03, 0xfd, 0xec, 0xd3, 0xea, 0x19, 0x25, 0xdc, 0x0c, 0xf8, 0xff,
  0x07, 0xe2, 0x28, 0x34, 0x11, 0xf7, 0x12, 0x0f, 0xf9, 0xe9, 0x19, 0x22,
  0xfa, 0x0c, 0x0f, 0x01, 0x11, 0x36, 0xe8, 0x08, 0xfd, 0xf1, 0xee, 0xe4,
  0x22, 0xd3, 0x39, 0xd9, 0x47, 0x02, 0xd1, 0x09, 0xd7, 0x25, 0xed, 0xf6,
  0x0c, 0xe1, 0xfe, 0x27, 0x09, 0xe7, 0x15, 0x00, 0x2b, 0xf7, 0xfb, 0xe9,
  0xe0, 0x24, 0xf4, 0xe4, 0xe9, 0xf2, 0xe8, 0x17, 0xfc, 0x0d, 0x1d, 0x21,
  0xdf, 0xe5, 0x31, 0xfd, 0xc5, 0x1a, 0xfe, 0x21, 0x10, 0xfc, 0x1a, 0x0a,
  0xf3, 0x0c, 0x1b, 0xf3, 0xea, 0x29, 0x0a, 0x05, 0xdb, 0xfa, 0xd5, 0xf6,
  0x13, 0x1b, 0xcd, 0x0d, 0x13, 0x02, 0x11, 0x1a, 0xdf, 0x1a, 0xdb, 0x09,
  0xe9, 0x07, 0xe8, 0xd6, 0x1e, 0xe7, 0xdf, 0x0d, 0xfe, 0xf7, 0x3c, 0x0d,
  0x08, 0x18, 0x00, 0xf1, 0xf0, 0xf8, 0x0d, 0xfc, 0xde, 0x23, 0x0c, 0xe8,
  0x26, 0x18, 0x27, 0xda, 0x1b, 0x05, 0xe3, 0x15, 0xee, 0x0a, 0xf6, 0x01,
  0xe6, 0xe4, 0x20, 0xd2, 0xe8, 0x21, 0xf1, 0xed, 0x18, 0x11, 0xec, 0x31,
  0xe8, 0x22, 0x2e, 0xfd, 0x0d, 0x21, 0xfe, 0xfd, 0x0d, 0x18, 0xcd, 0x09,
  0x06, 0xfb, 0x1e, 0xe9, 0xef, 0x20, 0xff, 0xa0, 0x1f, 0xeb, 0xe4, 0xf7,
  0xe2, 0xea, 0xfa, 0x1f, 0xf3, 0xef, 0xe6, 0x1b, 0x2f, 0x23, 0x0b, 0xdd,
  0x2f, 0x23, 0x11, 0x15, 0x0f, 0x31, 0x04, 0x20, 0x0e, 0x09, 0xff, 0x02,
  0x18, 0x09, 0xeb, 0x07, 0x16, 0x16, 0xfc, 0xf9, 0x0f, 0xee, 0xcb, 0x0e,
  0x06, 0x14, 0xf4, 0xef, 0xfc, 0x27, 0x0a, 0x1f, 0xdd, 0xf1, 0xcd, 0x18,
  0xd2, 0xf9, 0x1f, 0x1d, 0x08, 0x06, 0x19, 0x05, 0x03, 0xf7, 0x11, 0xe8,
  0xec, 0xf6, 0x3c, 0x10, 0x23, 0x20, 0x1b, 0x18, 0xfd, 0x2a, 0xfe, 0xed,
  0x17, 0xfe, 0xf1, 0xfa, 0x2f, 0xe3, 0x0e, 0xf2, 0xe6, 0xff, 0xfd, 0x2b,
  0xf2, 0x29, 0xf8, 0x12, 0x11, 0x37, 0xf2, 0xf3, 0x1d, 0x0e, 0x0e, 0x16,
  0x16, 0xf1, 0xdc, 0xf5, 0x00, 0x0a, 0x0d, 0x13, 0x0f, 0x22, 0x02, 0xdf,
  0xee, 0x12, 0xdb, 0x12, 0x4a, 0x0f, 0xfb, 0xf5, 0x2c, 0x06, 0x39, 0x22,
  0x05, 0x44, 0x1f, 0xf0, 0x1f, 0x00, 0xf9, 0xf7, 0xde, 0x13, 0xf9, 0xd0,
  0xf9, 0xfd, 0x0d, 0x29, 0xc6, 0x00, 0x19, 0xdf, 0xfe, 0x2b, 0x17, 0xdf,
  0xde, 0xdd, 0x10, 0xe7, 0xe0, 0xca, 0x3b, 0xe9, 0xe8, 0x00, 0x13, 0xdc,
  0x0b, 0x23, 0xfb, 0x81, 0x06, 0x30, 0x01, 0xfe, 0xd0, 0xee, 0xea, 0x00,
  0x1a, 0xf2, 0x15, 0xd0, 0xdf, 0xea, 0x2d, 0xdf, 0xf2, 0x0d, 0x18, 0x0f,
  0xf3, 0xef, 0xfd, 0x07, 0x1f, 0xf5, 0xe8, 0xf1, 0xcc, 0xff, 0xde, 0xf1,
  0xfb, 0x4c, 0x0f, 0x11, 0x58, 0xf6, 0xd0, 0x05, 0x19, 0x0e, 0x3c, 0x14,
  0xea, 0x25, 0x08, 0x3e, 0xba, 0x0f, 0xec, 0x2e, 0xd5, 0xf5, 0x45, 0x03,
  0xe4, 0xeb, 0x18, 0x21, 0x0c, 0x26, 0xc8, 0xcf, 0x19, 0x40, 0x1c, 0x50,
  0xb0, 0x3f, 0x15, 0x04, 0xe4, 0xf0, 0x05, 0x56, 0xfa, 0x11, 0x34, 0x9c,
  0x29, 0x17, 0x2b, 0xff, 0xcb, 0x00, 0x26, 0x07, 0x15, 0xe7, 0x31, 0x7c,
  0x1a, 0x4f, 0x33, 0xc1, 0x62, 0xc5, 0x15, 0x19, 0xd8, 0xff, 0x0d, 0x36,
  0xf2, 0x14, 0xfe, 0xcd, 0xdc, 0x0b, 0xd7, 0x29, 0x08, 0xc0, 0x5f, 0xf2,
  0x42, 0xc7, 0xf1, 0x18, 0xfd, 0x12, 0xd2, 0x0c, 0x12, 0xd8, 0xe9, 0x0b,
  0xd8, 0xf5, 0x1d, 0x1f, 0xea, 0x1c, 0x31, 0xe2, 0x16, 0x09, 0x08, 0x25,
  0xef, 0x04, 0xda, 0xd1, 0xd8, 0x2a, 0x39, 0x0b, 0xb8, 0x29, 0x2e, 0x11,
  0xfd, 0xf0, 0x2d, 0x5c, 0x2d, 0x4a, 0xee, 0xf3, 0x15, 0xa6, 0xe8, 0x27,
  0xd4, 0x32, 0xe5, 0xce, 0xc3, 0x1f, 0xc9, 0x1d, 0xfa, 0xe1, 0xfb, 0x25,
  0x0c, 0xe1, 0x41, 0xfd, 0x09, 0xf3, 0x22, 0xc1, 0xc7, 0xe6, 0xd2, 0x35,
  0x1a, 0xfb, 0x1e, 0x22, 0x26, 0x14, 0x3b, 0xf0, 0xd1, 0xdd, 0x11, 0x12,
  0xd3, 0xc0, 0x07, 0x02, 0x13, 0xfb, 0x0d, 0xfc, 0xc5, 0xe7, 0xe5, 0x36,
  0x2b, 0x0a, 0x29, 0xfb, 0x24, 0x01, 0xfa, 0xf5, 0xf2, 0x16, 0x31, 0x22,
  0x1d, 0xc7, 0xf8, 0x1b, 0x05, 0xe7, 0xfd, 0xda, 0xbf, 0x19, 0xcd, 0x27,
  0xdd, 0xf5, 0xdf, 0x04, 0x11, 0x18, 0x1d, 0x10, 0x31, 0x03, 0x01, 0x19,
  0xee, 0x0b, 0xd5, 0x17, 0xe0, 0xf8, 0xe4, 0x11, 0x0b, 0x4d, 0xfe, 0x11,
  0xf2, 0xd4, 0x14, 0xc6, 0x35, 0xde, 0x00, 0xe1, 0xf4, 0x2b, 0x36, 0xfa,
  0xd2, 0x16, 0x09, 0xef, 0xc9, 0x0d, 0x2b, 0x18, 0x21, 0xf7, 0xe2, 0x34,
  0xfb, 0x29, 0xfa, 0xd6, 0x3f, 0x0d, 0x03, 0xd5, 0x00, 0x07, 0xf1, 0xe0,
  0x00, 0xf5, 0x04, 0x04, 0xed, 0xe1, 0xeb, 0xef, 0x0c, 0xfd, 0xd3, 0x04,
  0x3b, 0xff, 0x08, 0x02, 0x27, 0x2a, 0x03, 0xf6, 0x16, 0xfd, 0x26, 0x2c,
  0x36, 0xf8, 0x1e, 0x0b, 0x5e, 0xe6, 0x01, 0xf3, 0x18, 0xf1, 0x0b, 0x19,
  0x0a, 0xf1, 0x50, 0x25, 0xcc, 0x4d, 0x0d, 0x12, 0xfb, 0xe2, 0x2b, 0xc6,
  0x10, 0x1c, 0xd4, 0x09, 0xe7, 0xdb, 0x1f, 0x0f, 0xfe, 0x44, 0xd1, 0xe7,
  0xfe, 0x07, 0x14, 0x03, 0x02, 0x45, 0xef, 0x02, 0xee, 0x28, 0x09, 0xd7,
  0xf9, 0xd9, 0x39, 0x29, 0x1f, 0x1a, 0xd7, 0xe2, 0x3d, 0xde, 0x06, 0xec,
  0x22, 0x09, 0x21, 0x12, 0xe5, 0xd0, 0xe3, 0x0c, 0xef, 0x0c, 0xf5, 0xf2,
  0xc6, 0xf3, 0xfc, 0xce, 0x19, 0xfa, 0x05, 0x13, 0xd7, 0xd0, 0x50, 0x34,
  0x09, 0x01, 0x30, 0x1a, 0x00, 0xe1, 0xe6, 0x42, 0x39, 0x33, 0x16, 0x07,
  0xf8, 0xdd, 0x28, 0xea, 0x01, 0x0d, 0x27, 0xe9, 0xd9, 0xdb, 0xd8, 0x22,
  0x1d, 0x1f, 0x1d, 0xc7, 0xd2, 0x1c, 0x17, 0xf6, 0xc6, 0xfd, 0x29, 0xe4,
  0xf0, 0x0b, 0xc6, 0xeb, 0x1f, 0x21, 0x16, 0xb0, 0x1a, 0xd4, 0x1e, 0xe9,
  0x1a, 0xfd, 0x05, 0x2f, 0xfd, 0x37, 0xee, 0x2e, 0xbb, 0xfc, 0x55, 0x56,
  0x0d, 0x25, 0xd0, 0xe8, 0x58, 0xb9, 0xb9, 0x0d, 0xea, 0x12, 0xd0, 0xfb,
  0xfd, 0xf6, 0x15, 0x13, 0x35, 0x1e, 0x81, 0xb4, 0x51, 0xd0, 0xdf, 0x16,
  0xf2, 0xf7, 0xdc, 0x17, 0x1f, 0xd5, 0x0e, 0x38, 0x3d, 0xfd, 0xcd, 0x35,
  0xf9, 0xde, 0xf1, 0x10, 0xdc, 0xfc, 0xd9, 0x25, 0x2b, 0xf8, 0x27, 0x09,
  0xff, 0xf7, 0xcb, 0xf0, 0x0d, 0x24, 0xed, 0x11, 0xf6, 0xc9, 0xee, 0xee,
  0xee, 0x08, 0x03, 0x04, 0x5a, 0x06, 0x04, 0xaa, 0x5d, 0x01, 0xff, 0x2a,
  0xff, 0x55, 0xe3, 0x15, 0xcf, 0xd3, 0x03, 0x36, 0x25, 0x39, 0xd8, 0x96,
  0x7c, 0xdf, 0x01, 0xec, 0xfc, 0xf4, 0x19, 0xee, 0xde, 0xe5, 0x0d, 0x02,
  0x19, 0xfc, 0xd5, 0x0f, 0x69, 0x03, 0x3a, 0x00, 0x1a, 0x14, 0x1b, 0xf8,
  0x31, 0x19, 0x0e, 0x1c, 0x52, 0xeb, 0x28, 0xff, 0xf9, 0xc7, 0x2b, 0xf6,
  0xf1, 0x11, 0xf8, 0xfb, 0xd0, 0x28, 0x06, 0x04, 0x39, 0xdd, 0xd8, 0xdd,
  0x1c, 0x1e, 0x0b, 0xd1, 0x07, 0x00, 0xf9, 0x20, 0xc8, 0x23, 0x1b, 0x34,
  0x63, 0xfb, 0xd7, 0x0b, 0x2e, 0x0d, 0xe2, 0x1b, 0xee, 0x03, 0x2d, 0xde,
  0xd4, 0x2a, 0x31, 0xb6, 0x14, 0x36, 0x4e, 0x19, 0xe2, 0x0e, 0x12, 0xc4,
  0xfd, 0xe9, 0xfe, 0xfc, 0x23, 0x0f, 0x1b, 0xca, 0x06, 0x0d, 0xfb, 0x3c,
  0x1e, 0xf2, 0x4e, 0x1d, 0xea, 0xf4, 0x24, 0xef, 0x11, 0x35, 0x29, 0xba,
  0x13, 0x04, 0x11, 0xfa, 0x2d, 0x0c, 0xfb, 0x0c, 0xef, 0xe4, 0xe8, 0x15,
  0x05, 0x11, 0x27, 0x01, 0x44, 0x29, 0x06, 0x1b, 0x20, 0xfa, 0xdb, 0xf7,
  0xfe, 0x2a, 0xf1, 0xfb, 0x14, 0xfc, 0xd1, 0x27, 0x23, 0x26, 0x36, 0xf5,
  0x15, 0x1a, 0xd6, 0xf0, 0xee, 0x2c, 0x27, 0xf1, 0x0f, 0x02, 0x37, 0x12,
  0x42, 0x08, 0x04, 0xe0, 0xec, 0x12, 0x0a, 0x04, 0xff, 0x02, 0x0a, 0x03,
  0x13, 0x1c, 0x35, 0x09, 0x5b, 0x15, 0xd6, 0x05, 0x3f, 0xb0, 0xe1, 0x27,
  0x0b, 0x0a, 0x36, 0xff, 0x12, 0x03, 0xf5, 0xed, 0x20, 0xf1, 0xdf, 0x36,
  0x45, 0xf2, 0xd2, 0x13, 0x34, 0x32, 0xe1, 0xc9, 0x05, 0xc4, 0x17, 0x02,
  0x1f, 0xcb, 0x6e, 0x02, 0x4c, 0xde, 0xfd, 0x3c, 0xe1, 0x19, 0xed, 0xf4,
  0x2f, 0x2c, 0xef, 0x55, 0xed, 0xfc, 0x09, 0xf5, 0xf2, 0xea, 0xd4, 0xe8,
  0x29, 0xd6, 0x31, 0x21, 0x15, 0xf7, 0x1f, 0xff, 0x14, 0xe2, 0xf1, 0x26,
  0x07, 0x37, 0x0b, 0x0b, 0xfc, 0xd2, 0x05, 0x25, 0xf0, 0x2e, 0x2c, 0x16,
  0xf5, 0x00, 0xf8, 0x06, 0xee, 0xf2, 0x12, 0x24, 0xe3, 0xd7, 0x24, 0x7f,
  0x15, 0xf9, 0x55, 0xe8, 0xdd, 0x0d, 0x19, 0x0f, 0xe5, 0xf2, 0x2f, 0xd3,
  0x3b, 0xc5, 0xec, 0x42, 0xed, 0xdd, 0x11, 0xdb, 0x05, 0xf3, 0xd3, 0x09,
  0xa5, 0x1d, 0x2d, 0xf7, 0xd4, 0xc5, 0xf3, 0x07, 0x16, 0x07, 0x40, 0xe0,
  0xfe, 0xdf, 0xd1, 0xea, 0x26, 0x13, 0xda, 0x11, 0xfe, 0x30, 0x10, 0x01,
  0x08, 0xd6, 0x48, 0x5a, 0x27, 0x3e, 0xa3, 0xd5, 0x24, 0xea, 0x03, 0x05,
  0x27, 0x24, 0x31, 0x11, 0xde, 0xef, 0x42, 0x24, 0x08, 0x38, 0x87, 0xcd,
  0x38, 0x29, 0x0e, 0x13, 0xeb, 0x06, 0x16, 0x29, 0x21, 0xd1, 0x42, 0xf2,
  0xdb, 0x5b, 0xc9, 0x3f, 0x28, 0x38, 0x04, 0xd1, 0xf2, 0xf2, 0x34, 0x30,
  0xde, 0x2c, 0x1e, 0xc9, 0xde, 0x06, 0xe4, 0x01, 0xc3, 0x36, 0xe0, 0xf0,
  0x2f, 0xfc, 0x2e, 0x3d, 0xc9, 0x0c, 0x2e, 0xea, 0xf9, 0x12, 0x04, 0x18,
  0xf4, 0x20, 0x11, 0x18, 0x17, 0x26, 0x1f, 0x0f, 0xdc, 0x14, 0x1f, 0xdc,
  0xf8, 0x34, 0xf3, 0xe7, 0xfd, 0x42, 0x06, 0xed, 0x47, 0x20, 0x1d, 0xf8,
  0x37, 0x33, 0x35, 0xdd, 0xe8, 0x12, 0x9f, 0x1c, 0xf6, 0x04, 0x3e, 0x1a,
  0x09, 0x0f, 0x02, 0xd3, 0x33, 0x31, 0xcd, 0xde, 0x0b, 0xf4, 0xfe, 0x2d,
  0xfe, 0x07, 0x09, 0x34, 0x57, 0x5e, 0x15, 0xc1, 0x0c, 0x34, 0xe5, 0xf1,
  0x0e, 0xe0, 0x03, 0x35, 0xce, 0x3a, 0x0c, 0xf3, 0xe2, 0xfc, 0xdc, 0xef,
  0xdc, 0x0a, 0xd7, 0x13, 0x34, 0x00, 0x47, 0x32, 0x1a, 0xfe, 0xf4, 0x22,
  0xf3, 0x0e, 0x05, 0xeb, 0x06, 0x0f, 0xd4, 0x1b, 0x33, 0x30, 0x1e, 0xe0,
  0xb8, 0x06, 0x1c, 0x12, 0xe2, 0xf6, 0xdd, 0xd6, 0xe1, 0xf1, 0xea, 0xfb,
  0xfa, 0x10, 0x32, 0x07, 0xee, 0xe9, 0x06, 0x36, 0x08, 0x0d, 0xe1, 0xfc,
  0x41, 0x03, 0xec, 0x10, 0x14, 0xfa, 0x12, 0xf8, 0x3e, 0x0e, 0xfe, 0x08,
  0x0a, 0xe4, 0x25, 0x20, 0x13, 0xe7, 0x29, 0xf5, 0x33, 0xd0, 0xfb, 0xfa,
  0xb2, 0xf9, 0x18, 0x08, 0x30, 0x2d, 0x42, 0xec, 0xff, 0xfe, 0xfd, 0x00,
  0x4b, 0x19, 0x0b, 0xf7, 0x17, 0x1c, 0x28, 0x09, 0x14, 0xff, 0x01, 0x02,
  0x28, 0xea, 0xc8, 0x0e, 0x04, 0x2b, 0x32, 0x1b, 0x2c, 0xd9, 0x25, 0xe9,
  0xee, 0x33, 0x21, 0xeb, 0x31, 0x17, 0x0d, 0x31, 0x1a, 0x33, 0x12, 0xe3,
  0x4a, 0xcd, 0x17, 0x3d, 0x2f, 0x03, 0xef, 0xdb, 0xfb, 0x10, 0xe6, 0x3b,
  0x33, 0x20, 0x18, 0xe5, 0x3a, 0xeb, 0x07, 0x29, 0x10, 0xfd, 0xfb, 0x10,
  0xfa, 0xf1, 0xfb, 0x33, 0x0e, 0xfa, 0x18, 0x2d, 0xff, 0xfd, 0x2d, 0x30,
  0x3c, 0x09, 0x31, 0xe8, 0x11, 0xfd, 0x3a, 0xfc, 0xd9, 0xdc, 0xd6, 0xdf,
  0x18, 0x20, 0xe6, 0xce, 0x05, 0xd2, 0x02, 0x1d, 0x06, 0xe6, 0xe4, 0xca,
  0x14, 0xf9, 0x13, 0x06, 0xf7, 0xea, 0xdf, 0xf2, 0x1c, 0xda, 0x14, 0x10,
  0x23, 0xd4, 0xed, 0x81, 0xdc, 0x10, 0x41, 0xe3, 0xcf, 0xdd, 0xef, 0xbb,
  0x01, 0x15, 0xdd, 0x3d, 0xc9, 0x24, 0x41, 0xb0, 0xd0, 0x59, 0xf0, 0x09,
  0x0f, 0x1e, 0xed, 0xd5, 0x38, 0xda, 0xfc, 0x14, 0x18, 0xd5, 0x3b, 0xd9,
  0x0c, 0x7d, 0xde, 0xf8, 0x25, 0x04, 0x29, 0xed, 0x2d, 0xfd, 0x2f, 0xf1,
  0x2e, 0x10, 0xf5, 0x50, 0xc7, 0xf6, 0x2e, 0xe4, 0xf8, 0xcf, 0xf5, 0xfd,
  0xfe, 0x00, 0x18, 0x08, 0x25, 0xd1, 0xfa, 0x03, 0xe7, 0x1f, 0x4c, 0xf7,
  0xa4, 0x0d, 0xe8, 0xff, 0xd9, 0xdd, 0x01, 0x3d, 0xe8, 0xfa, 0x35, 0xcc,
  0x1d, 0x42, 0x32, 0x21, 0xc3, 0x0f, 0x22, 0xeb, 0xfb, 0xd3, 0x1e, 0x1b,
  0xf0, 0x3f, 0x0f, 0xba, 0x37, 0x32, 0xef, 0xf1, 0xe2, 0x06, 0xdf, 0x0e,
  0x1b, 0xfe, 0x02, 0x59, 0x0b, 0xf4, 0x1d, 0x32, 0x06, 0x2c, 0xba, 0xe7,
  0x5f, 0xda, 0xca, 0x3b, 0x1e, 0xff, 0xfc, 0x15, 0x1c, 0xf8, 0xef, 0x59,
  0xfd, 0x0b, 0x0d, 0xfc, 0xe1, 0xd1, 0x0f, 0xe3, 0xe7, 0x1c, 0x2b, 0xe8,
  0x04, 0x0c, 0xf3, 0xd2, 0xdf, 0xfd, 0x3a, 0x0e, 0xc4, 0x14, 0x2b, 0xc7,
  0xf7, 0xee, 0x21, 0x10, 0x2c, 0xe8, 0xd3, 0x20, 0xeb, 0xe7, 0x5b, 0xeb,
  0xe7, 0x15, 0x13, 0xe2, 0x07, 0x1b, 0x23, 0x27, 0xd8, 0x3c, 0x13, 0xf2,
  0x1a, 0xf2, 0x10, 0x01, 0x05, 0x10, 0xe6, 0x12, 0x15, 0x12, 0xe5, 0x52,
  0x12, 0x3d, 0x17, 0xe9, 0x02, 0x18, 0xdc, 0xdc, 0xff, 0x14, 0xda, 0xe4,
  0xfc, 0x2b, 0x0b, 0xf8, 0x03, 0x07, 0xe4, 0x31, 0xdf, 0x31, 0x0c, 0x0e,
  0x0a, 0x0d, 0xe7, 0x23, 0x0e, 0x09, 0xd8, 0xea, 0xe5, 0xf2, 0x0d, 0x45,
  0x1e, 0x3e, 0xea, 0x1c, 0x0e, 0x10, 0x2b, 0xeb, 0x0f, 0x08, 0xf3, 0xcf,
  0x00, 0x00, 0xdf, 0x14, 0x16, 0x17, 0xe2, 0xfb, 0xd3, 0xf2, 0x1c, 0xfc,
  0xf5, 0xe3, 0x36, 0x2a, 0xe3, 0x0e, 0x00, 0x05, 0x00, 0xff, 0x12, 0x34,
  0xde, 0x35, 0xd5, 0x3f, 0xe1, 0x24, 0xfa, 0x35, 0x15, 0x0b, 0xf2, 0xc8,
  0xf2, 0xdc, 0xee, 0x1a, 0x2a, 0xe8, 0xd5, 0x1a, 0xd7, 0xee, 0xec, 0xd1,
  0xd3, 0xd4, 0xf7, 0x1f, 0xc4, 0x2a, 0x33, 0xcd, 0x0d, 0xfc, 0xef, 0xf3,
  0x01, 0xe5, 0x11, 0xf1, 0xd9, 0xc3, 0x24, 0x27, 0x00, 0x24, 0x23, 0x09,
  0x1c, 0xf6, 0x10, 0xdc, 0x0b, 0xe3, 0xfd, 0x2d, 0xef, 0x28, 0x63, 0xf8,
  0xed, 0xf5, 0x1a, 0x2c, 0xe0, 0x11, 0x38, 0xd3, 0x01, 0xe4, 0xe3, 0x43,
  0x16, 0xf0, 0xf7, 0xea, 0x11, 0xdd, 0x0b, 0x05, 0xee, 0x1b, 0xe4, 0x25,
  0x0c, 0x11, 0x29, 0x10, 0xea, 0x1d, 0x07, 0x0e, 0xe8, 0xeb, 0xf2, 0xe0,
  0x0f, 0xe5, 0x0d, 0x20, 0xe1, 0xff, 0x16, 0x07, 0x10, 0x2e, 0xf5, 0xdf,
  0xd4, 0x20, 0xc2, 0x2e, 0xed, 0x19, 0x11, 0x0b, 0x0b, 0xed, 0xe1, 0xfd,
  0xf6, 0x31, 0xd6, 0xef, 0x1b, 0x32, 0xe6, 0x29, 0x32, 0x26, 0x12, 0x0f,
  0x2b, 0xf3, 0x02, 0xe5, 0x16, 0xf9, 0x27, 0xd0, 0xdd, 0x46, 0xb5, 0xe2,
  0xfc, 0xf4, 0x3a, 0x1c, 0xf9, 0x2b, 0x2a, 0x37, 0x09, 0x01, 0x4e, 0xf2,
  0xe0, 0x29, 0xe2, 0xe0, 0x72, 0x23, 0xe5, 0xf1, 0x13, 0xe5, 0x2b, 0x1e,
  0xf9, 0x11, 0x4a, 0x0b, 0x0c, 0xff, 0x1e, 0x16, 0x56, 0x14, 0xe4, 0xdf,
  0xf6, 0xe4, 0x18, 0x09, 0xeb, 0xe0, 0xfc, 0x47, 0xda, 0x11, 0xe7, 0xd3,
  0xb2, 0x05, 0x3e, 0x19, 0xfa, 0xfe, 0x41, 0xe0, 0x0d, 0x28, 0x33, 0xe0,
  0x94, 0xe6, 0xa3, 0x17, 0xd7, 0x58, 0x07, 0x1a, 0xf4, 0xf1, 0x0b, 0x00,
  0x03, 0xe6, 0x1d, 0xb8, 0xca, 0xee, 0xc9, 0x40, 0x05, 0x3a, 0x22, 0x2f,
  0x17, 0x0d, 0x00, 0xfc, 0x13, 0xe8, 0xa5, 0xf1, 0xec, 0x22, 0x00, 0xe0,
  0x4d, 0x10, 0xd3, 0xe9, 0x13, 0x59, 0xd0, 0xf0, 0xe0, 0x34, 0x1e, 0xca,
  0x3e, 0xe5, 0x13, 0x07, 0x5a, 0xf4, 0xce, 0xf4, 0xb2, 0x5a, 0xd2, 0xe0,
  0x1d, 0xcb, 0xec, 0x75, 0xde, 0x33, 0x52, 0xf5, 0xec, 0x24, 0xf5, 0xcd,
  0xd8, 0xc8, 0xd6, 0x44, 0x05, 0x29, 0xdb, 0xdf, 0xd4, 0xd7, 0x7c, 0x47,
  0xa9, 0x54, 0x1a, 0x01, 0xda, 0xcb, 0xd9, 0x24, 0x26, 0xe9, 0xeb, 0xd2,
  0xeb, 0xfb, 0xf4, 0x21, 0xd9, 0x12, 0x0c, 0x5a, 0x28, 0x3d, 0x06, 0xfc,
  0x35, 0x4b, 0xea, 0x1a, 0x23, 0xbe, 0x06, 0x2a, 0x42, 0xca, 0xdd, 0x56,
  0xec, 0x4d, 0x17, 0xfd, 0x43, 0xed, 0xf8, 0x28, 0x0d, 0x81, 0x4c, 0xdc,
  0x06, 0xc4, 0xe4, 0xff, 0xec, 0xd4, 0xdf, 0xcc, 0xda, 0xfe, 0xf4, 0x35,
  0x24, 0x35, 0x16, 0xd3, 0xf8, 0x21, 0xda, 0x1c, 0xf1, 0x10, 0xde, 0x11,
  0xe3, 0x1a, 0xe2, 0x4f, 0x1c, 0xd9, 0x60, 0x14, 0xf2, 0xeb, 0xe4, 0x01,
  0x9b, 0x13, 0xfe, 0x09, 0x04, 0xed, 0xdd, 0x3f, 0xf3, 0x22, 0x18, 0xcd,
  0x6b, 0xe6, 0x01, 0x01, 0xff, 0x32, 0xba, 0xd8, 0x0f, 0xcd, 0x02, 0x49,
  0x0a, 0xdd, 0x37, 0xda, 0x36, 0x32, 0xd2, 0x07, 0xe3, 0x13, 0x08, 0xf4,
  0x17, 0x0f, 0x07, 0x1f, 0x04, 0xa8, 0x00, 0xd1, 0xbc, 0xe3, 0xef, 0xa8,
  0x1a, 0xcc, 0xd9, 0x12, 0xd6, 0x19, 0x00, 0xaa, 0x25, 0x26, 0x13, 0xd1,
  0xf7, 0xf5, 0xfb, 0x27, 0xc0, 0xf0, 0xfb, 0xef, 0x17, 0x06, 0xec, 0x20,
  0x29, 0x25, 0xf1, 0xe7, 0x48, 0xdb, 0x14, 0x02, 0xd3, 0x31, 0xf1, 0x82,
  0x2a, 0xd6, 0xc5, 0x0f, 0x10, 0x19, 0xfd, 0x12, 0x57, 0xd1, 0x0d, 0x21,
  0xec, 0x21, 0xfc, 0xa1, 0x23, 0xf8, 0x12, 0x14, 0x13, 0x1f, 0xf7, 0x2c,
  0x11, 0x0a, 0x08, 0xce, 0xf5, 0xdc, 0x40, 0x39, 0xe5, 0x22, 0x3e, 0xcf,
  0xf1, 0x72, 0xce, 0x02, 0x87, 0x2c, 0x22, 0x06, 0xf8, 0xda, 0x50, 0x2e,
  0x07, 0x18, 0x34, 0xcc, 0xe1, 0x0a, 0x2d, 0x11, 0x27, 0x0c, 0x30, 0x00,
  0xff, 0xff, 0x12, 0xe3, 0xf7, 0xed, 0x35, 0x13, 0x1e, 0xfa, 0xc9, 0x20,
  0xfd, 0x0b, 0x17, 0x1e, 0xff, 0x01, 0x13, 0x17, 0x0c, 0xff, 0x28, 0xe0,
  0x05, 0x01, 0x03, 0x0b, 0x23, 0xd3, 0x06, 0xf9, 0xfd, 0x30, 0xf3, 0xf5,
  0x01, 0xec, 0xaf, 0x49, 0x04, 0x16, 0xda, 0x19, 0x25, 0x09, 0xdb, 0x04,
  0x1e, 0x34, 0x11, 0xab, 0x23, 0x02, 0xe6, 0x35, 0x33, 0x04, 0x2e, 0x1b,
  0x26, 0x09, 0x09, 0x05, 0xfe, 0xfd, 0xfe, 0x21, 0x14, 0x29, 0x2f, 0x27,
  0xf7, 0x1e, 0x14, 0x00, 0x07, 0x1e, 0xf3, 0xe8, 0x06, 0xe4, 0xf3, 0x17,
  0xf5, 0x03, 0x00, 0x07, 0x18, 0xe6, 0x08, 0xed, 0x36, 0xf6, 0xdc, 0x00,
  0xef, 0x0a, 0xf2, 0xe4, 0xed, 0x19, 0x17, 0x2f, 0xec, 0xf5, 0xf9, 0x2c,
  0x3e, 0xf8, 0x00, 0xec, 0x06, 0xf5, 0x0e, 0x1e, 0x08, 0x21, 0x0f, 0x37,
  0x44, 0xb4, 0xe6, 0x0b, 0x43, 0xec, 0x12, 0x06, 0xe5, 0xf5, 0xf0, 0xfc,
  0xf7, 0xc4, 0xfa, 0x56, 0x51, 0x00, 0xfc, 0xe5, 0x7f, 0xfb, 0xfd, 0x29,
  0x05, 0x32, 0xcb, 0xcc, 0xe5, 0x00, 0x1c, 0x6e, 0x42, 0x05, 0xdb, 0xec,
  0x10, 0x14, 0xf9, 0x08, 0xff, 0x21, 0xee, 0xd0, 0x1b, 0xf3, 0x19, 0xf7,
  0x3b, 0xff, 0x17, 0x02, 0x2a, 0xd7, 0x17, 0xe0, 0xf0, 0xf4, 0x37, 0xfc,
  0xfd, 0xf6, 0x27, 0x0a, 0x4e, 0x17, 0xac, 0xfd, 0x10, 0x23, 0xdc, 0x2e,
  0x12, 0x16, 0x1a, 0x42, 0xd0, 0x0a, 0x13, 0xd6, 0x61, 0xee, 0x1f, 0xf8,
  0x15, 0xee, 0xf6, 0xd2, 0xff, 0x0a, 0x1b, 0xed, 0x1e, 0xe3, 0xc5, 0x51,
  0x5c, 0xae, 0x52, 0xec, 0x5b, 0xcf, 0xdc, 0xe6, 0xe6, 0x3c, 0xea, 0xcc,
  0x1e, 0xdd, 0xec, 0xfc, 0x11, 0x1a, 0xf6, 0x16, 0xde, 0x21, 0x15, 0x2c,
  0x01, 0xeb, 0x0e, 0x17, 0x2c, 0xe4, 0x3d, 0x13, 0xfa, 0xf9, 0x13, 0x26,
  0xae, 0xf4, 0x16, 0xe5, 0x0b, 0x12, 0x38, 0x0f, 0xee, 0x02, 0x21, 0xff,
  0xcd, 0x0f, 0xdc, 0xee, 0xd4, 0x2d, 0xd1, 0x0e, 0xf6, 0x22, 0x19, 0x01,
  0x1e, 0x3a, 0xf0, 0xb5, 0x47, 0x17, 0x63, 0xfb, 0x0a, 0xfa, 0xfb, 0x07,
  0xf1, 0xfb, 0x18, 0xc0, 0x23, 0x10, 0x10, 0xfc, 0x02, 0x2e, 0x71, 0x1d,
  0xcf, 0xff, 0xf9, 0xcf, 0x0b, 0xb7, 0x04, 0xed, 0xea, 0xfc, 0x08, 0x1a,
  0xdd, 0xd8, 0x0b, 0x0f, 0xe4, 0x12, 0xe1, 0xbd, 0xcd, 0xef, 0x06, 0x30,
  0x05, 0xe1, 0x21, 0x31, 0xfa, 0x02, 0x36, 0xf4, 0x0d, 0x0c, 0x13, 0xe1,
  0xf9, 0xe3, 0x36, 0xb3, 0x1a, 0x0e, 0xc3, 0x1e, 0x3b, 0xda, 0xd6, 0xfa,
  0xf7, 0x21, 0x02, 0x58, 0x03, 0x42, 0x3f, 0xaf, 0x2d, 0x3c, 0xd4, 0x09,
  0x04, 0xd8, 0x25, 0x05, 0x66, 0xe1, 0xba, 0x0e, 0x2d, 0x1b, 0x0f, 0xda,
  0x30, 0x0a, 0x5a, 0x22, 0xb5, 0x09, 0xb5, 0x0d, 0x1a, 0x08, 0xd3, 0xcc,
  0xee, 0xcc, 0xee, 0xeb, 0xf8, 0xbb, 0x11, 0x21, 0x06, 0xfa, 0x2f, 0xff,
  0xdd, 0xf9, 0x20, 0x13, 0x00, 0xfe, 0xf6, 0xec, 0x0c, 0xfe, 0xec, 0xe9,
  0xf8, 0x07, 0x65, 0x30, 0x00, 0xfc, 0x16, 0x0e, 0xd9, 0xdf, 0xfc, 0x3d,
  0xfa, 0x14, 0x7f, 0xc9, 0xf3, 0xf8, 0x39, 0x07, 0xd8, 0x06, 0x25, 0xc8,
  0xf1, 0xc2, 0xec, 0x47, 0xce, 0xd6, 0x51, 0xe2, 0xd7, 0x21, 0xf6, 0xf8,
  0xeb, 0x01, 0xf7, 0xdb, 0x19, 0xe9, 0xfc, 0x32, 0x13, 0xe7, 0x54, 0xfe,
  0xfb, 0x44, 0xe5, 0xda, 0xfa, 0x22, 0x2f, 0xd4, 0xff, 0xe7, 0x36, 0xef,
  0xe9, 0xdf, 0x28, 0x21, 0x2f, 0x04, 0x0d, 0x26, 0xf8, 0xff, 0x1a, 0xf8,
  0xd7, 0xf1, 0xea, 0xed, 0x0a, 0x15, 0xf9, 0xed, 0x0d, 0x06, 0x43, 0xf8,
  0x0d, 0x04, 0xfc, 0xea, 0xf2, 0xfa, 0x01, 0x46, 0x08, 0x1f, 0xed, 0xed,
  0x0d, 0x37, 0x1e, 0x15, 0x05, 0xeb, 0x09, 0xec, 0x18, 0x14, 0x1b, 0x51,
  0xe7, 0xfb, 0x12, 0xd7, 0x11, 0x13, 0xc3, 0x0f, 0xdc, 0xf0, 0xff, 0xfa,
  0x08, 0x32, 0xf6, 0x3a, 0xd8, 0x0b, 0x30, 0xc7, 0x09, 0x6b, 0x08, 0x12,
  0x21, 0xf1, 0xd5, 0x1a, 0x15, 0x3c, 0xf5, 0x10, 0x0f, 0xe1, 0x05, 0x22,
  0x02, 0x0d, 0xe0, 0xea, 0x25, 0x25, 0x24, 0x1b, 0x07, 0xfa, 0x26, 0xf7,
  0x07, 0xfe, 0xfa, 0x0d, 0xf5, 0x20, 0xf4, 0xe5, 0x09, 0xf9, 0x0c, 0xe7,
  0xff, 0x1d, 0x2d, 0xf1, 0xf9, 0x17, 0x0c, 0x0c, 0x29, 0x13, 0x24, 0x22,
  0x13, 0xfc, 0x19, 0xdf, 0x08, 0xe1, 0xf4, 0x2c, 0x14, 0x0b, 0x39, 0xee,
  0x07, 0xf0, 0xf0, 0x0f, 0xed, 0x1f, 0xf4, 0x06, 0xde, 0xfb, 0x26, 0xfd,
  0xf2, 0x0a, 0xd4, 0x14, 0x1e, 0xcc, 0xff, 0x1b, 0x16, 0xeb, 0xf2, 0x2b,
  0x09, 0x32, 0x05, 0x09, 0x1a, 0x20, 0xf3, 0x2c, 0x08, 0x03, 0xeb, 0x01,
  0x3d, 0xee, 0xf0, 0x07, 0x0b, 0xf4, 0xf6, 0xd9, 0xf9, 0x06, 0x04, 0xfb,
  0x20, 0x0c, 0x0a, 0xfe, 0x2f, 0xea, 0xef, 0xde, 0x13, 0xf2, 0x19, 0x1e,
  0x1e, 0xf9, 0x33, 0xf4, 0x0c, 0x27, 0xdd, 0x08, 0x20, 0xe3, 0x37, 0x14,
  0x02, 0xef, 0x16, 0x02, 0x0c, 0xfa, 0x19, 0xe6, 0x2d, 0xf6, 0xd6, 0xe6,
  0xf1, 0x1c, 0xfc, 0x00, 0x19, 0x27, 0xf4, 0x13, 0xf3, 0xea, 0xdb, 0xee,
  0xf4, 0x2c, 0x0e, 0xff, 0xfc, 0x1d, 0x1f, 0x1a, 0x08, 0xed, 0x02, 0xed,
  0x01, 0x01, 0xf5, 0x1e, 0x0c, 0x01, 0xe1, 0xd5, 0x00, 0x01, 0xd6, 0x10,
  0x0e, 0xf1, 0xd1, 0x19, 0xf6, 0xdb, 0x1a, 0x05, 0xf2, 0x15, 0xfa, 0xdf,
  0xf4, 0xf3, 0x0d, 0xfa, 0xe4, 0xe2, 0xe4, 0x08, 0x05, 0xf5, 0x1c, 0x05,
  0xe7, 0xfa, 0x03, 0x13, 0xe0, 0xf5, 0xed, 0xe1, 0x0c, 0x06, 0x09, 0x0e,
  0x1f, 0xfa, 0xd4, 0xfb, 0xea, 0x07, 0xfd, 0x28, 0x09, 0x16, 0x0b, 0x22,
  0xfb, 0xdb, 0x15, 0x1d, 0x25, 0x03, 0xf7, 0xf0, 0xc6, 0xf4, 0xde, 0x22,
  0x36, 0xfd, 0xce, 0x0b, 0xf5, 0xdb, 0x0b, 0x1b, 0x06, 0xf7, 0xfe, 0x1c,
  0xf2, 0x02, 0xf2, 0xef, 0xf0, 0xfc, 0x41, 0x19, 0xca, 0x1b, 0x0d, 0x0e,
  0x13, 0xd9, 0x14, 0x15, 0x47, 0x51, 0xdc, 0x10, 0x25, 0xe2, 0x28, 0x1e,
  0xfe, 0x12, 0x36, 0x0d, 0xe4, 0x12, 0xaf, 0xe4, 0x57, 0x21, 0xbc, 0xef,
  0x0e, 0xc4, 0xe7, 0x08, 0x02, 0x20, 0x01, 0xcd, 0x2c, 0x00, 0xed, 0x2b,
  0x3c, 0xae, 0xb9, 0xc7, 0x05, 0x04, 0x07, 0x13, 0xc9, 0x24, 0xf4, 0xe7,
  0xe0, 0xd7, 0xc7, 0x1c, 0x00, 0xf3, 0xfc, 0xe7, 0x37, 0xf0, 0x0c, 0xdc,
  0xf8, 0xfd, 0x12, 0x09, 0xda, 0xd1, 0x09, 0x36, 0x38, 0xe8, 0x06, 0x4b,
  0x09, 0xea, 0xdb, 0xe6, 0x41, 0x2a, 0x2a, 0xcf, 0xe0, 0x35, 0xf5, 0x05,
  0x19, 0xea, 0x32, 0x24, 0xd6, 0xf7, 0x36, 0xe6, 0x00, 0x00, 0x1b, 0xf2,
  0x41, 0x37, 0xc6, 0x3e, 0x22, 0xa0, 0x54, 0x09, 0xda, 0xf8, 0xe6, 0x5f,
  0x1a, 0x3d, 0x0e, 0xf2, 0xe7, 0x34, 0x0f, 0x41, 0xe1, 0xaa, 0xfc, 0x10,
  0xdb, 0x3f, 0x3c, 0xfd, 0xd3, 0x0f, 0xd2, 0xe9, 0x00, 0x20, 0x14, 0x11,
  0x2b, 0xcd, 0x0e, 0xf3, 0x27, 0x27, 0x42, 0xdd, 0x3d, 0xf3, 0x53, 0xfa,
  0xfc, 0xe2, 0x05, 0xca, 0xf6, 0x09, 0xd9, 0xe8, 0x35, 0x05, 0x3c, 0x23,
  0xe1, 0x22, 0xe4, 0x24, 0xf4, 0xdb, 0x23, 0x20, 0x67, 0xf0, 0xb5, 0xdd,
  0xf1, 0xdf, 0x0d, 0x17, 0xb3, 0x35, 0xf9, 0xd6, 0xef, 0xf3, 0x13, 0x5f,
  0x1c, 0x2d, 0x3b, 0xc5, 0x0e, 0x15, 0xaa, 0x32, 0xb2, 0x42, 0xb1, 0xea,
  0xf4, 0xd8, 0x20, 0x53, 0xb2, 0x29, 0x1c, 0xe1, 0xd7, 0xfb, 0xe7, 0xc6,
  0x40, 0xca, 0x42, 0x32, 0xde, 0x0c, 0xf8, 0xd1, 0x0e, 0x3c, 0xc3, 0x24,
  0x08, 0x18, 0x4d, 0xf3, 0x72, 0xe8, 0x0d, 0xff, 0x1a, 0x01, 0x07, 0xd4,
  0xee, 0x21, 0xa1, 0xca, 0x17, 0x42, 0xcc, 0xfe, 0x45, 0xff, 0x26, 0x2e,
  0xf3, 0xba, 0x3f, 0x2b, 0xa9, 0x3c, 0x8b, 0x0f, 0xdf, 0x68, 0xe2, 0x0a,
  0x1f, 0x19, 0x27, 0x59, 0x01, 0x1d, 0x52, 0x0f, 0xcc, 0x42, 0xf3, 0xfb,
  0xc4, 0xf9, 0x0a, 0x1e, 0x50, 0xd7, 0x3f, 0xc5, 0xfc, 0x23, 0x2f, 0x15,
  0xbb, 0x19, 0xf9, 0x15, 0xd1, 0x1e, 0x55, 0xe1, 0x33, 0xcf, 0x1a, 0xbd,
  0x0c, 0x11, 0x12, 0xf2, 0x1e, 0xed, 0x2e, 0x41, 0x4c, 0x04, 0x10, 0x4d,
  0xe6, 0xfa, 0xe7, 0x40, 0x19, 0xe5, 0xe9, 0x34, 0xb5, 0x2d, 0xc3, 0xea,
  0xa7, 0x03, 0x1d, 0x00, 0x44, 0x11, 0xe4, 0x2c, 0x03, 0x40, 0x39, 0xf4,
  0xc1, 0x18, 0xdf, 0x02, 0xc1, 0x4a, 0x00, 0xfb, 0x23, 0xdb, 0x19, 0x7f,
  0x1a, 0xc2, 0x3a, 0xe8, 0xc0, 0xd9, 0x1c, 0x20, 0xd7, 0x54, 0x13, 0xb3,
  0xd5, 0x0f, 0xfa, 0xdd, 0x19, 0xd5, 0x0e, 0xbf, 0xc5, 0x12, 0x2f, 0x28,
  0xd8, 0x38, 0x22, 0x2d, 0xa9, 0x3e, 0xb6, 0x14, 0xee, 0xff, 0x26, 0xcc,
  0x33, 0xc2, 0xd8, 0x27, 0xf8, 0xec, 0x07, 0xfc, 0xcd, 0xfa, 0xc5, 0xfb,
  0xfb, 0x08, 0xd9, 0x1c, 0x05, 0xce, 0xe9, 0x34, 0xf4, 0x08, 0x07, 0x11,
  0x25, 0xef, 0x1e, 0x05, 0xdb, 0xf8, 0x18, 0x06, 0xdc, 0xd7, 0x0e, 0xeb,
  0xeb, 0xe9, 0xf6, 0x24, 0xfe, 0xff, 0xd2, 0xf0, 0xf9, 0x23, 0x02, 0x12,
  0x01, 0xca, 0x11, 0x3a, 0xef, 0xf5, 0x0a, 0x02, 0xfd, 0x20, 0x2f, 0x03,
  0x1a, 0x1f, 0x0c, 0x47, 0x0f, 0xf4, 0x1b, 0x18, 0x00, 0x36, 0xdf, 0xda,
  0x1e, 0x2a, 0x13, 0x21, 0xe8, 0xf5, 0xd9, 0x18, 0xdd, 0xf9, 0xf7, 0x31,
  0xda, 0xe5, 0xd2, 0x0b, 0xbd, 0x26, 0x0b, 0x0d, 0x2a, 0x01, 0xe7, 0x86,
  0xde, 0x15, 0xcf, 0xfa, 0x49, 0xe3, 0xde, 0xe0, 0x03, 0x25, 0x15, 0x0b,
  0xc4, 0xf3, 0x31, 0x2d, 0x3a, 0x42, 0x1a, 0xd2, 0x36, 0xc9, 0xd0, 0x13,
  0x00, 0xf1, 0x16, 0x2b, 0x1f, 0xce, 0x2c, 0x0f, 0x19, 0x1b, 0xc2, 0xd1,
  0x32, 0x25, 0xed, 0xd4, 0xfa, 0xfa, 0x2f, 0x0d, 0xfe, 0x1a, 0x35, 0x50,
  0x0a, 0xde, 0x48, 0xe9, 0x1c, 0xf3, 0x11, 0xef, 0xbc, 0x0c, 0xc5, 0x01,
  0x22, 0xf3, 0xd5, 0x59, 0x09, 0xde, 0x07, 0xd8, 0xae, 0xd6, 0xf1, 0xe3,
  0xea, 0xc1, 0xcf, 0x37, 0xf1, 0xfe, 0x30, 0xe4, 0x13, 0x1d, 0xdc, 0x0e,
  0x14, 0x0d, 0xcd, 0x0a, 0x27, 0x56, 0xf8, 0xdf, 0x09, 0xf3, 0xfc, 0x30,
  0x13, 0xff, 0x06, 0xae, 0x14, 0xd6, 0x17, 0xf9, 0x12, 0xdc, 0xf3, 0xee,
  0xe9, 0xf7, 0x04, 0x04, 0x01, 0xc5, 0xd4, 0x01, 0x2a, 0xc7, 0xd9, 0xe5,
  0x14, 0xd8, 0x23, 0xca, 0xd1, 0x19, 0xfa, 0xd6, 0xe1, 0xff, 0x2d, 0xe3,
  0x0c, 0xef, 0x24, 0xca, 0xd2, 0xfc, 0x0c, 0xfa, 0x04, 0xe7, 0xdf, 0xbc,
  0x28, 0x07, 0xf1, 0xdb, 0xe3, 0x0d, 0xef, 0x26, 0xe2, 0x25, 0x04, 0x38,
  0xdf, 0xe3, 0xf5, 0x05, 0x62, 0x30, 0x0d, 0x0d, 0xe6, 0xe4, 0x28, 0x16,
  0x2d, 0x18, 0x17, 0xe0, 0x21, 0x13, 0xec, 0xd8, 0x11, 0xdd, 0xfb, 0xf1,
  0xf3, 0xef, 0x14, 0x31, 0x01, 0x15, 0x0c, 0xc2, 0x14, 0x1a, 0xcd, 0x08,
  0x72, 0xf5, 0x05, 0xd7, 0x41, 0xd7, 0x01, 0x0b, 0xb3, 0x28, 0x18, 0x97,
  0x28, 0xf5, 0xee, 0x0f, 0x61, 0x57, 0x12, 0x28, 0x28, 0xf9, 0x10, 0xde,
  0x2b, 0x23, 0xfc, 0x0b, 0x0c, 0xf0, 0x0c, 0xda, 0x17, 0xca, 0xfd, 0xe9,
  0x03, 0xe6, 0xfd, 0x09, 0xf3, 0x3c, 0xf1, 0x19, 0x00, 0x1e, 0xf8, 0xd9,
  0x4a, 0x04, 0x1a, 0x27, 0xe4, 0xf5, 0x21, 0x0b, 0xf5, 0x3a, 0x0a, 0xe3,
  0xfa, 0xeb, 0x09, 0x55, 0x65, 0xf2, 0xf2, 0xd1, 0x42, 0xf1, 0x1d, 0x4e,
  0x1f, 0x3f, 0x05, 0xd3, 0x0b, 0x16, 0x1b, 0x2c, 0x2e, 0x1c, 0xfd, 0xde,
  0x37, 0xb4, 0xca, 0x30, 0xee, 0x70, 0x27, 0x81, 0xff, 0xf4, 0xd2, 0x14,
  0x22, 0xfa, 0x17, 0xe4, 0xf1, 0xe1, 0xf9, 0xe8, 0x42, 0x17, 0xfe, 0xf6,
  0x35, 0xfc, 0xd1, 0x12, 0x65, 0xe8, 0x60, 0x47, 0x27, 0x31, 0x45, 0x23,
  0xe3, 0x48, 0xfe, 0xdb, 0x3d, 0x19, 0x18, 0x07, 0xf4, 0x1a, 0x27, 0xfc,
  0xf1, 0xe3, 0x30, 0xfd, 0xe0, 0xee, 0x10, 0x01, 0x27, 0xf9, 0x02, 0xee,
  0x02, 0x30, 0x3b, 0x0f, 0x20, 0x37, 0xf3, 0xfa, 0xbc, 0x24, 0xe3, 0x33,
  0x21, 0x11, 0xd3, 0xdf, 0xca, 0x45, 0x19, 0x1a, 0x19, 0xe3, 0x0c, 0xec,
  0x38, 0x08, 0x0f, 0xc6, 0x0c, 0xe8, 0xda, 0x1f, 0x0a, 0x1f, 0xf0, 0xea,
  0x16, 0x16, 0xf2, 0x20, 0x48, 0xf3, 0x04, 0x26, 0x04, 0x20, 0x5a, 0x34,
  0xf1, 0x00, 0xff, 0xd0, 0x07, 0x18, 0xe1, 0x0b, 0x42, 0x0a, 0x1b, 0x00,
  0x08, 0xda, 0x37, 0x60, 0x14, 0x15, 0x47, 0x12, 0xef, 0xe9, 0x22, 0x38,
  0xbe, 0x2c, 0x0d, 0xdc, 0xf9, 0xfc, 0xe9, 0x37, 0x1f, 0x05, 0x30, 0xed,
  0x13, 0xda, 0xd9, 0x04, 0x0c, 0xda, 0xdc, 0xb6, 0x13, 0xd6, 0xf6, 0x4b,
  0xdc, 0xfc, 0x4d, 0x04, 0x14, 0x18, 0xc4, 0xf6, 0xf8, 0xf4, 0xfb, 0x0c,
  0x0f, 0xfd, 0xf8, 0x55, 0xa3, 0xdb, 0xc0, 0xea, 0xf5, 0x12, 0x08, 0xe4,
  0x05, 0xa7, 0xdd, 0x27, 0x1a, 0xe8, 0x0c, 0xd9, 0xb4, 0xcf, 0xf5, 0xf1,
  0x04, 0x09, 0xe0, 0xc2, 0x05, 0xb6, 0xfc, 0xdf, 0xc5, 0xd9, 0xf1, 0x05,
  0xe4, 0x1b, 0xe2, 0xf9, 0xef, 0x1a, 0x0c, 0xf4, 0x1c, 0x0c, 0xe2, 0xec,
  0xdd, 0xfc, 0x8c, 0x1e, 0xf6, 0x9d, 0xbf, 0x07, 0x18, 0xd1, 0x0e, 0xf9,
  0x11, 0x22, 0xc9, 0xc4, 0x18, 0x0d, 0x19, 0x05, 0x39, 0x05, 0x37, 0xc5,
  0x08, 0x1c, 0x15, 0xd8, 0x81, 0x1f, 0x0c, 0x03, 0xc8, 0xc0, 0xc3, 0xf3,
  0x1f, 0x24, 0x20, 0x2a, 0xd2, 0x1b, 0x20, 0xf9, 0xdc, 0xe7, 0xdc, 0x16,
  0xeb, 0x2d, 0xda, 0xaa, 0xe8, 0xdd, 0xd2, 0x25, 0x02, 0x0a, 0xaa, 0x02,
  0x0a, 0x2d, 0xfa, 0x03, 0x13, 0xe5, 0x01, 0x02, 0xff, 0x1d, 0xe6, 0xfd,
  0x40, 0xe0, 0xdd, 0x09, 0xf9, 0x11, 0x12, 0x0c, 0x1c, 0xe7, 0xe4, 0x1b,
  0x28, 0xca, 0x00, 0x0c, 0x34, 0xf5, 0xc8, 0x36, 0xb8, 0x26, 0xf2, 0xf3,
  0x01, 0x0d, 0xbe, 0x11, 0x16, 0x14, 0x42, 0x1b, 0x3a, 0xcf, 0xf5, 0x22,
  0xc9, 0x19, 0xcf, 0xa6, 0xf0, 0x19, 0x82, 0xef, 0x35, 0xa8, 0xd6, 0xf9,
  0x03, 0xfa, 0x1c, 0x1a, 0xd4, 0x30, 0x00, 0x15, 0x29, 0x2d, 0xe8, 0xbf,
  0x30, 0x34, 0x06, 0x2f, 0x04, 0x0b, 0xfd, 0x4b, 0xc2, 0x41, 0x27, 0x06,
  0x04, 0xe1, 0xfe, 0x1c, 0x18, 0x0b, 0xdd, 0xf0, 0x27, 0xf5, 0xea, 0x28,
  0x33, 0x38, 0x06, 0xcd, 0x1b, 0xe2, 0xda, 0x16, 0xee, 0xee, 0xd4, 0xf2,
  0x22, 0xb3, 0xb8, 0xf5, 0xeb, 0x07, 0xcc, 0xc9, 0x24, 0xc2, 0xb9, 0x17,
  0xf8, 0x40, 0x19, 0xf4, 0xed, 0xd8, 0x0e, 0xee, 0xbb, 0xd8, 0x19, 0x93,
  0xe5, 0x17, 0xa4, 0x24, 0xdf, 0xba, 0xea, 0x03, 0xd5, 0xe7, 0x23, 0xf4,
  0xd0, 0xe8, 0xe8, 0x25, 0xe8, 0x42, 0xe0, 0x20, 0xf1, 0xe2, 0x19, 0xd8,
  0xf9, 0xd1, 0xca, 0x21, 0x26, 0xdf, 0xf3, 0xcf, 0x3a, 0x1d, 0xf3, 0x0e,
  0x40, 0x05, 0xf5, 0x03, 0x29, 0x14, 0xdf, 0x1a, 0x00, 0xf5, 0x0d, 0xed,
  0x1a, 0x1c, 0xea, 0xe5, 0x2b, 0x13, 0x6a, 0x12, 0x1e, 0x08, 0xda, 0x37,
  0x07, 0x10, 0xf4, 0xdf, 0x1d, 0x1f, 0x9d, 0x01, 0x2b, 0xf7, 0x4d, 0x12,
  0xed, 0xbc, 0xd2, 0x2a, 0xd2, 0x3d, 0xfb, 0xc9, 0x1d, 0x4e, 0x97, 0x12,
  0x34, 0xd3, 0x10, 0x1d, 0x0c, 0x13, 0xdf, 0x22, 0x18, 0x1d, 0xe7, 0xe3,
  0x08, 0x01, 0x34, 0x02, 0x42, 0x0a, 0xf4, 0x02, 0x3f, 0xb4, 0x04, 0x3f,
  0xf2, 0xfd, 0x20, 0x0a, 0xc4, 0x07, 0x21, 0xcb, 0x25, 0xcf, 0x55, 0x4c,
  0x3a, 0x1f, 0xdf, 0xfc, 0xf1, 0x0d, 0xdd, 0x08, 0x2f, 0x3d, 0xf4, 0x36,
  0x0d, 0x02, 0x3c, 0xe8, 0x48, 0xd8, 0xe1, 0x03, 0xb9, 0xef, 0xce, 0xb7,
  0x0b, 0x05, 0x8a, 0x52, 0x32, 0xe1, 0xf0, 0xfd, 0x3d, 0x0a, 0x1f, 0x30,
  0x0d, 0x25, 0xf0, 0xcf, 0x18, 0xff, 0xf9, 0x2d, 0xf3, 0xd7, 0xfe, 0xfc,
  0xef, 0xf0, 0x18, 0x0a, 0xe9, 0x0d, 0x0f, 0x13, 0x31, 0x2d, 0x52, 0xd4,
  0xf2, 0x49, 0xdd, 0x2e, 0x90, 0xf0, 0x16, 0x3e, 0x18, 0xef, 0xf8, 0x50,
  0xdc, 0x32, 0xf8, 0x9d, 0x00, 0x0a, 0xcb, 0xb1, 0x32, 0xd2, 0xda, 0x05,
  0x05, 0x29, 0x1a, 0xe4, 0x25, 0x04, 0xf8, 0x01, 0x47, 0x2f, 0xdb, 0x0a,
  0x7f, 0xe7, 0xd6, 0x0e, 0xf7, 0x06, 0x00, 0xde, 0xc1, 0xe1, 0x2d, 0x2a,
  0xca, 0x3c, 0x55, 0x24, 0x45, 0x2d, 0x2e, 0xd5, 0x02, 0xe6, 0xe0, 0x34,
  0x1f, 0xcb, 0x5c, 0xda, 0xd3, 0x0e, 0xc2, 0x29, 0xef, 0x28, 0x36, 0xc8,
  0x2c, 0xc0, 0xde, 0xff, 0x25, 0x2d, 0xd5, 0x16, 0x13, 0xf3, 0xfb, 0x13,
  0x2b, 0xfc, 0xe5, 0x14, 0x02, 0x48, 0x31, 0x43, 0x15, 0xf3, 0x16, 0x38,
  0x07, 0xf4, 0x0c, 0xe8, 0x2b, 0xe4, 0xc3, 0xe6, 0x32, 0x2d, 0x0f, 0x40,
  0xf9, 0x10, 0x56, 0xf6, 0x4a, 0x20, 0x20, 0xcc, 0x34, 0xd1, 0xe1, 0x46,
  0x26, 0x0d, 0xe8, 0x3a, 0x11, 0x00, 0x47, 0x4a, 0xee, 0xff, 0x24, 0xf3,
  0x0e, 0xf6, 0xfa, 0x3b, 0x10, 0x0d, 0x15, 0x1a, 0x1d, 0xdd, 0xfc, 0x02,
  0x21, 0xee, 0x09, 0x1b, 0x2d, 0xef, 0x16, 0x1d, 0x06, 0xd6, 0x22, 0xd1,
  0xda, 0xea, 0x29, 0x4c, 0xd1, 0xf7, 0x28, 0x29, 0xf4, 0x3c, 0xed, 0x13,
  0x09, 0x27, 0x01, 0xe2, 0x17, 0x35, 0x28, 0x3e, 0x0e, 0x27, 0xcf, 0xf7,
  0x14, 0xd7, 0x02, 0x22, 0x08, 0x2a, 0x3f, 0x06, 0xc4, 0xde, 0xdf, 0x13,
  0x2b, 0x22, 0xb2, 0xf4, 0x4d, 0xcd, 0xbf, 0xbe, 0x28, 0x05, 0x1e, 0x17,
  0xb6, 0xe8, 0x24, 0xae, 0xf5, 0x64, 0x10, 0xc8, 0x15, 0xe9, 0x20, 0xbf,
  0xff, 0xbf, 0x15, 0x53, 0x05, 0xf5, 0x43, 0xce, 0x02, 0x60, 0xfd, 0xfa,
  0xfb, 0xca, 0x01, 0xcd, 0x1e, 0xdd, 0x15, 0x36, 0xfd, 0xeb, 0xfe, 0xb1,
  0xc3, 0xf5, 0xd4, 0xd8, 0xd7, 0xd8, 0xfd, 0x9d, 0xea, 0xa0, 0xcb, 0x09,
  0xef, 0xd5, 0xff, 0xf7, 0x13, 0xef, 0xee, 0x25, 0xfd, 0xfa, 0xf1, 0xfa,
  0x01, 0x1c, 0x28, 0x31, 0x17, 0xfb, 0xec, 0x0c, 0x09, 0xef, 0xf5, 0x05,
  0x01, 0x0d, 0x16, 0x3d, 0x0e, 0xfa, 0x2d, 0xe8, 0x26, 0xef, 0x9a, 0x22,
  0x41, 0xef, 0xf1, 0xe1, 0x51, 0xcc, 0x0d, 0x12, 0xc9, 0x45, 0xfc, 0x81,
  0x26, 0x3d, 0xa2, 0x2b, 0xfd, 0xe5, 0xf3, 0xe0, 0x54, 0xee, 0xd7, 0x11,
  0xde, 0x19, 0x14, 0xfc, 0x14, 0x33, 0xcf, 0xf2, 0x28, 0xfe, 0x2e, 0xff,
  0x56, 0xcd, 0xd6, 0x03, 0xf0, 0xfb, 0x1b, 0x01, 0x02, 0x0b, 0x22, 0xf1,
  0x17, 0xfe, 0x09, 0xf0, 0x06, 0xe4, 0xe2, 0xf6, 0x22, 0xe6, 0xe6, 0xfb,
  0xef, 0xfc, 0xe3, 0x03, 0x1d, 0xe4, 0xeb, 0x05, 0x32, 0x10, 0x07, 0x0e,
  0xea, 0x15, 0xf5, 0xc8, 0x2e, 0x11, 0xb9, 0x2c, 0x19, 0xda, 0xe4, 0xec,
  0x64, 0xea, 0x2c, 0x41, 0x0e, 0x16, 0xe5, 0xa1, 0x21, 0x0d, 0xc5, 0x32,
  0x05, 0xe1, 0xd6, 0x10, 0x38, 0xf7, 0xfd, 0x3a, 0x06, 0x2c, 0xdb, 0xc3,
  0x0f, 0x0a, 0x13, 0x0d, 0x3a, 0xe3, 0x22, 0xf0, 0x20, 0xdc, 0x0c, 0xfc,
  0x16, 0x1e, 0xd7, 0xdf, 0xff, 0x02, 0x15, 0x18, 0x0f, 0xc7, 0x28, 0xf6,
  0x06, 0xe9, 0xf3, 0xcb, 0xef, 0xca, 0xc4, 0x03, 0x1a, 0xdf, 0xf3, 0x26,
  0x08, 0xd5, 0x49, 0x2d, 0xf4, 0xea, 0x06, 0x06, 0xee, 0x28, 0xd7, 0x33,
  0x1b, 0xf3, 0x17, 0xdd, 0xd3, 0x10, 0x1d, 0xea, 0x03, 0x21, 0xd8, 0xfc,
  0xdb, 0x21, 0x11, 0x07, 0xfc, 0x21, 0x11, 0xfe, 0x00, 0xf1, 0xcf, 0x20,
  0xfc, 0xf4, 0xd2, 0xeb, 0xd2, 0xde, 0xfd, 0x06, 0x0d, 0x12, 0xfa, 0x63,
  0x44, 0xba, 0x40, 0xd9, 0x37, 0xf1, 0x00, 0x10, 0x0f, 0x20, 0x02, 0xf1,
  0xea, 0xf0, 0xf2, 0x23, 0x28, 0x04, 0x45, 0x08, 0x23, 0xcd, 0xd4, 0xf9,
  0xc8, 0xf1, 0xf9, 0x2a, 0xe6, 0xf5, 0x13, 0xfa, 0x3f, 0xe4, 0x4d, 0xdb,
  0xfb, 0xe2, 0xe9, 0x27, 0xb5, 0xfd, 0xce, 0x1c, 0xda, 0xf1, 0xea, 0x14,
  0x00, 0xda, 0x16, 0xc0, 0x32, 0x16, 0xf6, 0xe5, 0xd6, 0x45, 0xf4, 0xef,
  0xdf, 0xbc, 0xe7, 0x3c, 0x1c, 0x19, 0x6d, 0x08, 0x45, 0x0c, 0x2b, 0x13,
  0x19, 0xf2, 0xf5, 0x13, 0x06, 0x2c, 0x00, 0x0f, 0xda, 0x3c, 0x13, 0x17,
  0xca, 0x29, 0x40, 0x00, 0x08, 0xc5, 0xfc, 0x1a, 0x06, 0xf4, 0x09, 0xab,
  0x33, 0xe9, 0xcf, 0xf4, 0x4b, 0x1a, 0x12, 0x1d, 0xdf, 0xfb, 0x2a, 0x34,
  0x14, 0x1d, 0xfb, 0xfa, 0x29, 0xfb, 0xde, 0xe0, 0x51, 0xdf, 0xf2, 0x0e,
  0xff, 0x14, 0x23, 0xd1, 0x0b, 0xf6, 0xcd, 0x2b, 0x2a, 0x0f, 0x09, 0x09,
  0x30, 0x2a, 0x00, 0xe2, 0xfb, 0xff, 0x47, 0xfa, 0xe1, 0xf3, 0x45, 0xd9,
  0xd3, 0x78, 0x05, 0x13, 0x21, 0x1b, 0x26, 0xb5, 0x2f, 0xfb, 0x0f, 0xfd,
  0x0e, 0xe5, 0x2c, 0xe0, 0xb0, 0x5c, 0xd5, 0xf1, 0xb9, 0x01, 0xf6, 0xbe,
  0x33, 0xdf, 0x09, 0x07, 0xe6, 0x0c, 0x11, 0xbf, 0x2d, 0x5c, 0x1b, 0x01,
  0xc9, 0x10, 0x2e, 0x24, 0x07, 0x9d, 0xaf, 0x67, 0xd2, 0x42, 0xf4, 0x4a,
  0x34, 0x13, 0xd7, 0x93, 0x0e, 0x9f, 0x4a, 0x15, 0x1b, 0xe2, 0x0d, 0x08,
  0x1d, 0x4a, 0xa8, 0x21, 0xc2, 0xfe, 0xf8, 0xbf, 0x5e, 0x9c, 0x40, 0x4e,
  0xaa, 0xb9, 0x9d, 0x54, 0x20, 0xb4, 0x4e, 0x7f, 0x0b, 0x23, 0xe5, 0xb0,
  0x48, 0x90, 0x99, 0x23, 0x03, 0x19, 0xd6, 0xf5, 0xa3, 0x97, 0xab, 0x00,
  0xc7, 0x19, 0x1d, 0xb3, 0x5a, 0xe6, 0x20, 0xcc, 0xed, 0x0f, 0xee, 0xbc,
  0xee, 0x08, 0x04, 0xb3, 0xc7, 0x0a, 0xbc, 0xa9, 0x4b, 0x38, 0xf7, 0x1b,
  0x2e, 0x24, 0xd8, 0xcb, 0x03, 0x61, 0x3b, 0x9b, 0xad, 0x99, 0x92, 0x9b,
  0x5d, 0x41, 0xba, 0xb8, 0x1e, 0xbf, 0x6b, 0x27, 0xb4, 0x13, 0xfd, 0xc8,
  0xf5, 0xfb, 0xa8, 0x15, 0xb4, 0xb3, 0xdd, 0x2c, 0xed, 0xdf, 0x12, 0x99,
  0x26, 0x9c, 0x22, 0xe5, 0xcd, 0x5f, 0xc3, 0x99, 0x34, 0x57, 0x1c, 0x31,
  0xc6, 0xbc, 0xe3, 0x59, 0xd9, 0x11, 0x99, 0x3a, 0xca, 0xdf, 0x18, 0x3c,
  0x16, 0x44, 0xd1, 0x47, 0xc5, 0x46, 0xcd, 0x34, 0x46, 0x57, 0x14, 0x55,
  0x00, 0xd1, 0x90, 0x03, 0xa1, 0xa0, 0xa2, 0xee, 0xeb, 0x9b, 0xa2, 0x1f,
  0x3c, 0x03, 0xf0, 0x1e, 0xf5, 0xf9, 0x29, 0x11, 0x1f, 0x2d, 0xd5, 0x96,
  0x0c, 0xe7, 0xb3, 0x96, 0x2d, 0x12, 0xe3, 0xed, 0x3a, 0xfb, 0x4d, 0xe5,
  0x57, 0x92, 0x20, 0xbd, 0x2c, 0xc2, 0xba, 0x06, 0xd0, 0x13, 0x2a, 0x19,
  0xa3, 0x60, 0x2d, 0xf9, 0xce, 0xe5, 0xf5, 0x1c, 0x14, 0xc6, 0xf4, 0x24,
  0xe6, 0xff, 0xe3, 0xd8, 0x45, 0x52, 0xd1, 0x39, 0x14, 0xdf, 0xa4, 0x5f,
  0xf6, 0x13, 0x96, 0x30, 0xdd, 0x1f, 0xdb, 0x70, 0x3d, 0x01, 0x40, 0xeb,
  0x12, 0xee, 0xb1, 0x48, 0x64, 0xef, 0xfe, 0x52, 0x98, 0x29, 0x17, 0x41,
  0xc8, 0xed, 0xd7, 0x28, 0x34, 0xa8, 0xc7, 0x60, 0xed, 0xfe, 0xf3, 0x57,
  0x15, 0xf4, 0xf3, 0x02, 0x3a, 0x34, 0xc0, 0x90, 0xaf, 0xb3, 0xe6, 0x2f,
  0x60, 0xca, 0x9e, 0xc0, 0xda, 0x29, 0x09, 0xb9, 0x20, 0xb0, 0x14, 0xe9,
  0x47, 0xda, 0x96, 0xa2, 0xc4, 0xb1, 0x00, 0x91, 0x8d, 0xd3, 0x3d, 0xed,
  0x22, 0x16, 0xd7, 0xf7, 0x14, 0xac, 0xdc, 0xff, 0x52, 0xd7, 0xc4, 0x54,
  0xc0, 0xe5, 0xe2, 0x5c, 0xec, 0xf7, 0x0a, 0xa9, 0x9f, 0x9a, 0x98, 0xd1,
  0xd7, 0x66, 0xc3, 0xcc, 0x66, 0x1f, 0xec, 0xa0, 0x55, 0xe0, 0x2e, 0x65,
  0xdd, 0x44, 0x42, 0x31, 0xd7, 0x52, 0x29, 0xb0, 0x92, 0x8b, 0xf1, 0x58,
  0x13, 0xf7, 0xae, 0xcc, 0xc9, 0x1d, 0x29, 0x8b, 0xf0, 0x37, 0x34, 0xd6,
  0xb3, 0xf6, 0x97, 0x35, 0x13, 0x26, 0xc8, 0x90, 0x11, 0x49, 0x16, 0x0c,
  0x0f, 0x04, 0xf3, 0xbe, 0x64, 0x05, 0x19, 0x67, 0xcd, 0x3f, 0x4e, 0xc4,
  0xbd, 0x06, 0x59, 0x5f, 0xd6, 0x38, 0xcc, 0x59, 0x2f, 0x0a, 0x8a, 0xd4,
  0x0e, 0xe3, 0x05, 0xdf, 0xdc, 0x14, 0x11, 0x20, 0xcc, 0xeb, 0xea, 0xee,
  0x0a, 0x16, 0xf6, 0xf7, 0xd0, 0xf9, 0xc0, 0x00, 0x07, 0x02, 0xd4, 0x0c,
  0xf2, 0x0b, 0x20, 0x2f, 0x10, 0xe4, 0xf9, 0xd4, 0x01, 0x20, 0x9c, 0xcc,
  0x0e, 0x21, 0xf9, 0x10, 0x26, 0xf8, 0xeb, 0xf3, 0x1a, 0xd8, 0x18, 0xfa,
  0xea, 0x38, 0xd0, 0x24, 0x17, 0xeb, 0x04, 0x36, 0x0e, 0x27, 0x08, 0xf5,
  0xdb, 0xff, 0xd4, 0x02, 0xf3, 0xf3, 0x24, 0x22, 0x09, 0xde, 0x12, 0x04,
  0x0c, 0x1b, 0xff, 0xef, 0x20, 0x12, 0xed, 0x07, 0xef, 0xfc, 0xd4, 0x33,
  0x1c, 0x0e, 0xfb, 0x33, 0xff, 0x08, 0x1f, 0x20, 0xf7, 0x2a, 0x01, 0xc4,
  0xe5, 0xcb, 0xc9, 0xfc, 0xc9, 0xfe, 0xf5, 0xf8, 0x14, 0xec, 0x00, 0x00,
  0x12, 0x2a, 0x20, 0xe9, 0x01, 0x36, 0x05, 0x01, 0xf7, 0x1b, 0xdb, 0x12,
  0x0b, 0x24, 0x10, 0xdb, 0x2f, 0x1f, 0xf2, 0xe8, 0x20, 0x1b, 0x1f, 0x09,
  0x0c, 0xe4, 0x08, 0xf1, 0x05, 0x09, 0x0b, 0x01, 0x28, 0x04, 0x06, 0xef,
  0x2a, 0xae, 0x15, 0x0b, 0xf6, 0x0d, 0x06, 0x16, 0xdc, 0x04, 0x15, 0x10,
  0x37, 0x11, 0xe4, 0x06, 0xd1, 0xdc, 0xde, 0x35, 0xce, 0x3d, 0x2f, 0xed,
  0x15, 0xe0, 0xe3, 0x14, 0x0f, 0x05, 0x28, 0xcb, 0x07, 0x29, 0xfe, 0x08,
  0xff, 0x14, 0xf8, 0xd2, 0x26, 0x22, 0xf0, 0x41, 0x02, 0x2b, 0x3a, 0xa3,
  0xd1, 0x2d, 0xdf, 0xdc, 0x0c, 0x2a, 0xe5, 0xd7, 0x0d, 0xe1, 0x0c, 0x49,
  0x2b, 0xd3, 0x2f, 0x06, 0xe8, 0xfe, 0xbd, 0xf5, 0x26, 0xec, 0xea, 0x27,
  0x02, 0x04, 0x32, 0x04, 0x10, 0x15, 0x21, 0xdf, 0xd9, 0x5f, 0xf3, 0x14,
  0xca, 0x13, 0x2e, 0x10, 0x18, 0xad, 0x43, 0x00, 0x34, 0x12, 0x01, 0xb8,
  0x93, 0x0a, 0x2a, 0x12, 0xf4, 0xf5, 0xdc, 0xbf, 0xf4, 0xd3, 0xd4, 0x34,
  0x0f, 0xd6, 0x13, 0x0a, 0xb7, 0xf5, 0xbc, 0x2b, 0xc5, 0x21, 0x12, 0xf3,
  0x11, 0xe7, 0xc1, 0x7f, 0x25, 0x24, 0x27, 0xea, 0xf6, 0x22, 0x04, 0x12,
  0xf3, 0xee, 0x1d, 0xfd, 0xee, 0x19, 0x0e, 0x48, 0x06, 0x00, 0x20, 0xee,
  0xbb, 0xf3, 0x91, 0xee, 0xfa, 0x11, 0xe3, 0x25, 0x30, 0x06, 0xf0, 0xfd,
  0x21, 0xf5, 0x2c, 0xde, 0xd1, 0x4a, 0xd2, 0x26, 0x0d, 0x08, 0xeb, 0xdd,
  0x0d, 0xd2, 0x0e, 0x03, 0x2d, 0xf2, 0x28, 0xe5, 0x17, 0xf0, 0xcb, 0xff,
  0xef, 0x07, 0xf5, 0xb9, 0xfc, 0x0b, 0x23, 0x36, 0xda, 0xf1, 0xe9, 0xed,
  0xe3, 0xf7, 0x12, 0xe4, 0xf9, 0x0d, 0xf4, 0xb9, 0xff, 0xb5, 0xd7, 0x18,
  0xeb, 0x0e, 0x19, 0xf1, 0xc4, 0x27, 0xff, 0x18, 0xe5, 0x0d, 0x05, 0xe3,
  0x2d, 0x9a, 0xe3, 0x58, 0x1b, 0x10, 0x16, 0x05, 0xf3, 0x0d, 0x18, 0x0b,
  0xe5, 0xef, 0xe2, 0xe7, 0xce, 0xfa, 0xcc, 0x21, 0xe6, 0x08, 0x08, 0xed,
  0xf7, 0xda, 0xd0, 0xf1, 0xfe, 0xd4, 0xdd, 0xbc, 0x29, 0xff, 0xd0, 0xf5,
  0xfa, 0xea, 0x24, 0xfc, 0x23, 0x0d, 0xfc, 0x4c, 0x11, 0xdf, 0xd9, 0x1f,
  0xf1, 0x27, 0x50, 0xc8, 0x2d, 0x48, 0xc4, 0xd3, 0xfa, 0xbe, 0x30, 0xeb,
  0xee, 0xdc, 0xb2, 0xd3, 0x03, 0xfa, 0x38, 0x1d, 0xe1, 0xfd, 0xc8, 0x11,
  0xd4, 0xdc, 0xd1, 0xba, 0x16, 0xc4, 0x02, 0xc0, 0x14, 0x1e, 0xfa, 0xd2,
  0xd2, 0xe7, 0x49, 0x13, 0x1c, 0xdc, 0x14, 0xee, 0x28, 0xc3, 0xd3, 0x29,
  0xac, 0xf9, 0xb2, 0x09, 0xfe, 0xbb, 0x30, 0xe9, 0x1e, 0x17, 0xe7, 0x26,
  0x1d, 0xde, 0xbe, 0xf7, 0xbf, 0xe7, 0x05, 0xc5, 0xf9, 0xcc, 0xe1, 0x19,
  0x3e, 0xfd, 0xe6, 0xfb, 0xfa, 0x0e, 0x24, 0xe9, 0x03, 0x46, 0x27, 0xc6,
  0xf4, 0x40, 0x89, 0x3f, 0x55, 0xbd, 0x23, 0x24, 0x57, 0x0a, 0xb4, 0x29,
  0xb7, 0x48, 0x12, 0xdc, 0xbe, 0x03, 0xb9, 0x04, 0x3d, 0x0c, 0x3b, 0xc1,
  0x7e, 0x19, 0x96, 0x2a, 0xd2, 0x1b, 0xd5, 0x42, 0xf3, 0xfe, 0xa5, 0x0a,
  0x26, 0x4a, 0x09, 0xcc, 0x15, 0xc6, 0xce, 0x26, 0xfc, 0x39, 0x31, 0x8c,
  0xfb, 0xdd, 0xa3, 0x26, 0x04, 0x17, 0x11, 0x2f, 0x04, 0xfa, 0xe2, 0x5b,
  0xc3, 0xf5, 0x3c, 0xfe, 0x08, 0xf9, 0xfd, 0x02, 0xa4, 0x29, 0xed, 0xeb,
  0xce, 0x03, 0xdb, 0xeb, 0x1a, 0xb4, 0x01, 0xfe, 0x18, 0x34, 0xe3, 0x12,
  0xed, 0x89, 0xcb, 0x3e, 0xeb, 0x39, 0xeb, 0x4e, 0xef, 0xf2, 0xd6, 0x81,
  0x0b, 0xf2, 0xc9, 0x26, 0x16, 0x0e, 0x2c, 0xbd, 0x13, 0xbc, 0xd4, 0x4a,
  0xf1, 0xeb, 0xf8, 0xfa, 0xfe, 0xcf, 0xf2, 0x32, 0xd8, 0xc3, 0xf6, 0x04,
  0x25, 0x23, 0xdc, 0x1d, 0x2a, 0xba, 0xde, 0x04, 0x31, 0x02, 0xf0, 0x43,
  0x10, 0x9f, 0xa6, 0x2b, 0x14, 0xcc, 0xd5, 0x0b, 0xf0, 0x08, 0x07, 0xba,
  0x11, 0xea, 0xe4, 0x76, 0xab, 0x28, 0x19, 0xcc, 0x00, 0x09, 0xcd, 0xd6,
  0xb9, 0xba, 0xf6, 0xeb, 0xc5, 0x0d, 0x47, 0x08, 0x3c, 0xf3, 0xd4, 0xdb,
  0x24, 0x20, 0xf2, 0x08, 0xc0, 0x36, 0xfd, 0xb9, 0xda, 0xc8, 0xb8, 0x1f,
  0x2e, 0xbc, 0x1c, 0xf6, 0xf9, 0xd4, 0x14, 0x1c, 0x0d, 0x24, 0xdc, 0xba,
  0xd6, 0x13, 0x02, 0xc1, 0x0f, 0xd3, 0x08, 0xeb, 0x21, 0x05, 0xbb, 0xca,
  0xcc, 0xdf, 0xb3, 0xeb, 0xce, 0xfc, 0xde, 0xc6, 0x35, 0x3b, 0xfb, 0x02,
  0x20, 0x03, 0x3d, 0x28, 0x01, 0x30, 0xfc, 0x03, 0x25, 0x05, 0x12, 0x09,
  0x19, 0xce, 0xdc, 0xb8, 0xec, 0xc1, 0xbb, 0xc7, 0xb7, 0x3f, 0x15, 0xf4,
  0x0a, 0xf7, 0x0f, 0xfd, 0xd0, 0x32, 0x0d, 0x02, 0xdc, 0xd6, 0xc7, 0xea,
  0x23, 0x19, 0xf3, 0x17, 0xc3, 0x0a, 0xe6, 0x04, 0x31, 0xcf, 0xab, 0xd8,
  0x12, 0xc9, 0xbd, 0x37, 0xcb, 0x32, 0xd2, 0xde, 0xdc, 0xd4, 0xd8, 0xda,
  0x2a, 0x11, 0x2a, 0xff, 0xdf, 0x31, 0x23, 0x1c, 0xdf, 0x12, 0x24, 0xfa,
  0x0a, 0x28, 0xbc, 0x26, 0xcd, 0x1c, 0x04, 0x30, 0x13, 0xfd, 0x22, 0x2b,
  0x2e, 0xd5, 0x15, 0x00, 0x41, 0xfc, 0x12, 0x38, 0x30, 0x10, 0x1b, 0x10,
  0x13, 0x23, 0x04, 0x04, 0x05, 0x12, 0x01, 0xdd, 0xef, 0x15, 0xf4, 0x39,
  0xf9, 0xda, 0x1f, 0x11, 0xe1, 0x17, 0x1c, 0x10, 0xed, 0xeb, 0xe4, 0x2e,
  0xfc, 0x29, 0x2b, 0x26, 0xf1, 0x16, 0x35, 0x03, 0x19, 0x11, 0x0d, 0x02,
  0xe3, 0x1c, 0x07, 0x6a, 0xed, 0x18, 0x17, 0x26, 0xda, 0x0d, 0xee, 0xe5,
  0xf7, 0x02, 0x2c, 0x09, 0x1d, 0xf6, 0x20, 0x16, 0xe9, 0xfb, 0x21, 0xf3,
  0xe4, 0xff, 0xe6, 0xe5, 0xf0, 0xff, 0xe9, 0xd2, 0x0a, 0xd3, 0x0e, 0xdb,
  0xe0, 0x11, 0x03, 0xf0, 0x19, 0x03, 0x08, 0xfa, 0x2c, 0x20, 0xda, 0x14,
  0xef, 0x28, 0xcb, 0x08, 0xe4, 0xd6, 0x10, 0x15, 0x11, 0xe0, 0x2e, 0x0e,
  0x19, 0x09, 0xe1, 0xfb, 0xe9, 0xe5, 0xce, 0x06, 0xf6, 0x39, 0x1b, 0x1c,
  0x00, 0x2f, 0x20, 0xe5, 0x29, 0xf3, 0x01, 0xd4, 0xe8, 0xc7, 0xee, 0x5f,
  0x10, 0xf6, 0x35, 0x2c, 0x1a, 0x38, 0x31, 0x12, 0xb7, 0x0b, 0x50, 0x22,
  0x28, 0xaf, 0x1a, 0x35, 0x14, 0x1d, 0x27, 0x05, 0x0a, 0xee, 0x30, 0x09,
  0x97, 0x0f, 0x23, 0xeb, 0x10, 0xeb, 0xe7, 0xf8, 0x18, 0x17, 0x21, 0x00,
  0x30, 0xdd, 0xb8, 0xf0, 0x11, 0xfd, 0x0e, 0x41, 0x27, 0x48, 0x3c, 0xe5,
  0x21, 0x1e, 0xe7, 0x0e, 0x09, 0x14, 0x95, 0xcf, 0x4c, 0xe3, 0x09, 0x07,
  0x27, 0x29, 0x44, 0x12, 0x0b, 0x2e, 0x41, 0x08, 0xed, 0x14, 0xa8, 0x16,
  0x3e, 0x2f, 0xef, 0xd9, 0xd8, 0x00, 0xde, 0x47, 0x14, 0x1b, 0x47, 0x00,
  0xf6, 0x1a, 0x02, 0x16, 0x1a, 0xf7, 0x2d, 0xde, 0x10, 0x00, 0x04, 0x2f,
  0x17, 0x01, 0x09, 0xd4, 0xfb, 0x72, 0xa3, 0xe7, 0x22, 0x2d, 0x32, 0xfb,
  0xfe, 0x0a, 0x32, 0xf8, 0x17, 0x0d, 0x09, 0x95, 0xc7, 0x00, 0xea, 0xea,
  0xe7, 0x05, 0xef, 0xdf, 0x4c, 0x0d, 0xd5, 0x0c, 0xe4, 0xfa, 0x1b, 0xe9,
  0xfe, 0x0b, 0x8c, 0x21, 0x02, 0x08, 0x21, 0x23, 0x2f, 0x10, 0x23, 0x54,
  0xed, 0x14, 0x4d, 0xf9, 0x1c, 0x3b, 0xf2, 0xde, 0xe5, 0x22, 0x11, 0x06,
  0xea, 0x2c, 0x34, 0x0f, 0xf3, 0xfc, 0x2f, 0xca, 0xfc, 0x31, 0x9d, 0xf8,
  0xfe, 0xe6, 0x0c, 0xfc, 0x2d, 0x04, 0x2c, 0xe2, 0xf9, 0x3f, 0xfc, 0xc7,
  0xcf, 0x4e, 0xc1, 0x3a, 0x28, 0x1b, 0xde, 0x21, 0x30, 0x0e, 0x2b, 0xe2,
  0x03, 0x44, 0x21, 0x41, 0x22, 0x12, 0x03, 0xf6, 0x02, 0x0d, 0x27, 0x10,
  0xf9, 0x28, 0xd9, 0x48, 0x14, 0xf9, 0x61, 0xd0, 0xfa, 0x0f, 0xcf, 0x09,
  0xb7, 0xe5, 0xf4, 0xdb, 0x2c, 0xb1, 0xf1, 0x2f, 0x0d, 0xc8, 0x72, 0xf0,
  0x13, 0xf1, 0x16, 0xed, 0xff, 0x0a, 0xe0, 0xfa, 0x37, 0xb6, 0xde, 0x21,
  0x2d, 0xe2, 0x3c, 0xf8, 0x03, 0xe0, 0xd7, 0xfd, 0xd1, 0xf9, 0xde, 0x09,
  0xdc, 0x25, 0xf5, 0x11, 0x17, 0x16, 0xd7, 0x3a, 0x05, 0x81, 0x2b, 0xcd,
  0x6c, 0xdf, 0x9d, 0x18, 0xb6, 0x25, 0xa3, 0x04, 0x0e, 0xea, 0x05, 0x2a,
  0xd8, 0xfc, 0xb4, 0x18, 0x0e, 0x0b, 0xf8, 0x18, 0x04, 0x04, 0x23, 0xd5,
  0x01, 0xf8, 0xf9, 0x2c, 0x15, 0x2c, 0xd2, 0x12, 0x41, 0x0f, 0x1b, 0x3a,
  0x1f, 0x27, 0xdb, 0xd1, 0xf7, 0xeb, 0xea, 0x38, 0x33, 0xf6, 0x48, 0x0a,
  0x27, 0x25, 0xf5, 0xe3, 0x0f, 0xf4, 0x1f, 0x89, 0x12, 0xf3, 0xe3, 0x49,
  0xda, 0xa7, 0x40, 0x33, 0xe6, 0x4e, 0x02, 0x35, 0xe1, 0xfb, 0x39, 0xc0,
  0x4e, 0xd7, 0xf7, 0xe9, 0x38, 0x0b, 0x13, 0x35, 0xc0, 0x00, 0x03, 0xdd,
  0x03, 0x39, 0x20, 0x1a, 0x3c, 0x2b, 0x07, 0xd3, 0xe4, 0xe7, 0x0a, 0xfd,
  0x2c, 0x00, 0xc5, 0xff, 0xee, 0xf9, 0xfa, 0xde, 0x37, 0xd4, 0x00, 0x4f,
  0xfd, 0xda, 0xf4, 0xfd, 0x0c, 0xdc, 0xea, 0x15, 0xd1, 0xf7, 0xf3, 0xce,
  0x55, 0xc7, 0x3c, 0xea, 0x57, 0xe6, 0x35, 0x1b, 0xe8, 0x0c, 0xfc, 0x0c,
  0xf4, 0x2f, 0x1f, 0xc6, 0x26, 0xd1, 0xc5, 0xd0, 0xe5, 0xa3, 0x10, 0xdd,
  0xb7, 0x2d, 0x21, 0xe3, 0xf7, 0x29, 0x04, 0xcd, 0x0d, 0xaf, 0x22, 0xe3,
  0xf8, 0x71, 0xef, 0x15, 0x11, 0x4a, 0x3d, 0x15, 0x10, 0x1f, 0x09, 0x3b,
  0x2b, 0x20, 0x38, 0xec, 0x51, 0xed, 0x06, 0xc7, 0x06, 0x2b, 0xfd, 0x35,
  0x0f, 0x39, 0x4c, 0xed, 0x0a, 0xe5, 0x0c, 0x34, 0x09, 0x40, 0x62, 0xeb,
  0x4a, 0x21, 0x1b, 0x33, 0x07, 0xfd, 0x28, 0xc4, 0x26, 0x07, 0xaf, 0xfc,
  0xea, 0xe9, 0x40, 0x19, 0xb4, 0xf9, 0xe6, 0x4c, 0x39, 0x17, 0xf9, 0x10,
  0x00, 0x39, 0xf0, 0xfa, 0xb5, 0x1f, 0x2d, 0x11, 0x06, 0xe1, 0xc7, 0x12,
  0x1f, 0x47, 0xd3, 0x9a, 0x29, 0x02, 0xfb, 0x33, 0x09, 0x46, 0x1e, 0x0d,
  0x34, 0x38, 0xcd, 0x06, 0x2a, 0x47, 0x3e, 0xd2, 0xed, 0x23, 0xf4, 0x70,
  0x33, 0xd9, 0xc1, 0x0d, 0x2d, 0x1f, 0x27, 0x3a, 0x4d, 0x61, 0xf4, 0xdd,
  0xf3, 0xe8, 0xe1, 0x0b, 0xe6, 0x20, 0x02, 0xe7, 0xdd, 0x1c, 0x34, 0x04,
  0x35, 0xde, 0x70, 0xe1, 0x2e, 0x00, 0xb7, 0xc8, 0xf9, 0xf8, 0xd9, 0xff,
  0xec, 0x40, 0xd4, 0x17, 0x34, 0x0d, 0xe9, 0x0c, 0x37, 0xef, 0xbb, 0xd8,
  0x05, 0xb9, 0x4e, 0x1d, 0xfd, 0xfe, 0x0e, 0x02, 0x14, 0x0c, 0xef, 0x9f,
  0x0e, 0xbd, 0xbf, 0xfa, 0x04, 0xf1, 0x76, 0x28, 0x63, 0xc8, 0x0d, 0x42,
  0x06, 0x01, 0xd0, 0x18, 0x16, 0xe7, 0x1b, 0x44, 0xa0, 0x0d, 0x03, 0x38,
  0x03, 0xe9, 0x34, 0xe5, 0x25, 0x81, 0xce, 0xc1, 0x08, 0x2a, 0x20, 0x23,
  0xb2, 0xd1, 0x5a, 0x56, 0xbf, 0x1d, 0x00, 0xe9, 0xf1, 0x15, 0xf0, 0xb3,
  0x0a, 0x4a, 0x93, 0xc8, 0xfb, 0xa7, 0xb1, 0xdb, 0x18, 0x32, 0xe4, 0x7d,
  0x0c, 0x74, 0xe6, 0xab, 0x34, 0x53, 0xc4, 0xf3, 0xfd, 0xd9, 0xe3, 0xe1,
  0x25, 0x29, 0xc4, 0xea, 0x33, 0x49, 0x56, 0xd6, 0xfe, 0x0b, 0x10, 0x17,
  0xed, 0x08, 0xe1, 0xc8, 0x35, 0x2f, 0xea, 0xfb, 0x2a, 0xef, 0xfe, 0x28,
  0x25, 0xee, 0x36, 0x07, 0x57, 0xab, 0xc2, 0xb4, 0xbe, 0x3b, 0xa8, 0x5a,
  0xc6, 0x16, 0xd4, 0xc6, 0xaa, 0xb2, 0x04, 0x23, 0x9e, 0xe7, 0x5c, 0xc3,
  0xd7, 0xa6, 0x23, 0xa0, 0x2f, 0xc2, 0xf7, 0x57, 0x0c, 0xa2, 0x65, 0xe1,
  0xb8, 0xf2, 0xf0, 0xd1, 0xd3, 0xad, 0xa6, 0x48, 0x62, 0xb6, 0x40, 0xb7,
  0x1d, 0xb0, 0x5c, 0xbb, 0xdf, 0x9d, 0xaa, 0xa7, 0x44, 0x5a, 0xa4, 0xb1,
  0x0a, 0x53, 0x1d, 0xf6, 0x29, 0x87, 0xf4, 0xb2, 0x02, 0xce, 0x97, 0x08,
  0x50, 0xd7, 0x5c, 0x5c, 0xad, 0xef, 0x48, 0x4a, 0x45, 0x5f, 0x1c, 0x5e,
  0x05, 0xfc, 0x1d, 0xa0, 0xca, 0xa7, 0x27, 0x33, 0xb7, 0xd8, 0xf1, 0xcb,
  0xca, 0x5d, 0xfa, 0xd2, 0xdf, 0xb8, 0x5a, 0x51, 0xa2, 0xd0, 0xae, 0x51,
  0x38, 0xf6, 0x2b, 0x66, 0x33, 0xa9, 0xb8, 0xc6, 0x1e, 0xc7, 0x4b, 0x4d,
  0x57, 0x43, 0xbd, 0x20, 0xac, 0xbf, 0xa7, 0x19, 0xa8, 0xb5, 0x4c, 0xb0,
  0x92, 0xa2, 0x43, 0x0e, 0xac, 0xb5, 0x44, 0x1b, 0xc2, 0x21, 0x26, 0x44,
  0xc4, 0x31, 0x17, 0x1d, 0xd7, 0x92, 0x02, 0x51, 0x2f, 0x49, 0xde, 0x95,
  0x26, 0xd7, 0x98, 0xbc, 0xa0, 0xa4, 0x05, 0x46, 0x52, 0x06, 0xfa, 0xcf,
  0x1c, 0xbf, 0x43, 0x91, 0xbc, 0x20, 0xe1, 0x00, 0xb9, 0x93, 0xe3, 0xa0,
  0xec, 0xef, 0xb6, 0x22, 0x0a, 0x92, 0x94, 0x88, 0xf7, 0xb5, 0x98, 0xa7,
  0xfa, 0x9a, 0x35, 0x25, 0xf5, 0xf7, 0xa5, 0xcb, 0x43, 0xa2, 0x9e, 0xad,
  0xc9, 0xcf, 0x0b, 0x8e, 0xc7, 0xd2, 0xb8, 0x12, 0x3c, 0x0f, 0x29, 0x39,
  0xc4, 0xae, 0xbd, 0x13, 0x2d, 0xad, 0x37, 0x1a, 0xd9, 0xd5, 0xa4, 0x1c,
  0xe7, 0x9b, 0xc8, 0xa5, 0xeb, 0xba, 0x0c, 0xd7, 0xb0, 0xe9, 0x9f, 0xfe,
  0xfd, 0x0a, 0x9c, 0xe4, 0xea, 0xb5, 0x01, 0x2d, 0xf4, 0x39, 0x44, 0xd5,
  0x23, 0x21, 0xeb, 0x3f, 0x3e, 0xae, 0x59, 0x38, 0xf5, 0x48, 0x2e, 0xb5,
  0xc7, 0xb2, 0x9f, 0xf7, 0x4c, 0x09, 0xd7, 0x5b, 0xad, 0xd2, 0xc2, 0x34,
  0xe4, 0x9a, 0x0a, 0x50, 0x55, 0x22, 0x00, 0xe7, 0x43, 0xb4, 0x81, 0xcd,
  0x16, 0x39, 0x3f, 0xe9, 0x4b, 0xe2, 0x4c, 0xfe, 0x3e, 0xda, 0x3b, 0xd2,
  0xd3, 0x31, 0xd2, 0x12, 0x0c, 0x90, 0x61, 0x20, 0xeb, 0x30, 0xd0, 0xd0,
  0x51, 0x4e, 0xf8, 0xd7, 0x8c, 0xe3, 0xc1, 0x0e, 0x5a, 0x61, 0x2e, 0xdd,
  0xde, 0x47, 0x30, 0x61, 0xfc, 0xb1, 0xbf, 0xa6, 0x40, 0xc4, 0x4f, 0x58,
  0xd2, 0xf1, 0x37, 0x30, 0x35, 0xfe, 0x49, 0xb0, 0x8f, 0x26, 0x50, 0x85,
  0xfd, 0x4b, 0x04, 0xd1, 0xaa, 0x22, 0x06, 0x4c, 0x28, 0x49, 0xa0, 0xe5,
  0xc5, 0x9d, 0xa0, 0xc0, 0xc5, 0xf3, 0xa2, 0xa7, 0xf6, 0xf3, 0x07, 0x37,
  0x99, 0x40, 0xcd, 0x0a, 0x9c, 0x44, 0xd3, 0x5b, 0xf5, 0x02, 0x46, 0x9c,
  0x3c, 0x0a, 0xc3, 0xfb, 0xfb, 0x57, 0x55, 0xfc, 0xab, 0xb9, 0x0a, 0xcf,
  0x61, 0xfc, 0xdf, 0x64, 0x22, 0xbe, 0x93, 0xd4, 0xe2, 0x08, 0x3b, 0x01,
  0xe9, 0x05, 0x0a, 0x17, 0x1a, 0x0e, 0x19, 0x1f, 0xf7, 0xe5, 0x05, 0xf2,
  0xda, 0xe9, 0x1b, 0x02, 0x0a, 0xfb, 0xe4, 0xd0, 0x0d, 0xfe, 0xe3, 0x73,
  0x0d, 0xdb, 0x68, 0xdc, 0xb4, 0x2d, 0x3a, 0x1b, 0xd9, 0x13, 0x30, 0xf6,
  0x12, 0xf8, 0x18, 0x7f, 0x12, 0xf8, 0x6b, 0xd0, 0xfb, 0x24, 0xdb, 0xdc,
  0x19, 0x2f, 0x06, 0xfb, 0x45, 0xfd, 0xeb, 0x0c, 0xe9, 0xf4, 0x03, 0x1e,
  0x06, 0x75, 0xd0, 0x03, 0xef, 0xf6, 0x24, 0x24, 0x40, 0x0f, 0x3f, 0xf5,
  0x0a, 0x1a, 0x03, 0x36, 0xbb, 0x07, 0x2e, 0x2a, 0x0b, 0xd8, 0x0c, 0xbd,
  0xb1, 0xfb, 0xf5, 0x11, 0x06, 0x22, 0x12, 0xc1, 0xed, 0x35, 0x48, 0x19,
  0x00, 0x2a, 0x1a, 0x0c, 0xee, 0xd0, 0x17, 0x6d, 0xdf, 0x42, 0x12, 0xde,
  0xca, 0xf3, 0xf5, 0xf2, 0xfe, 0x2b, 0xf6, 0x0d, 0x33, 0xf3, 0x25, 0x3d,
  0xc5, 0x35, 0x2b, 0x11, 0x46, 0x0b, 0x98, 0xd7, 0x12, 0xfd, 0xc4, 0x03,
  0xf3, 0x14, 0xed, 0x36, 0xd3, 0xfe, 0x2a, 0x15, 0x11, 0x0b, 0xe6, 0xf6,
  0x5a, 0x01, 0x9e, 0xfd, 0xd3, 0x15, 0xf2, 0xe6, 0x2a, 0x06, 0xfe, 0x7b,
  0xbf, 0x04, 0x1f, 0xf4, 0xfc, 0x46, 0x0d, 0x0e, 0xe5, 0xf1, 0x31, 0xef,
  0x05, 0x40, 0xd3, 0xf4, 0xe8, 0x43, 0x21, 0x24, 0xfb, 0xfa, 0x52, 0xfc,
  0x1d, 0xef, 0x0b, 0x60, 0x0e, 0x3c, 0x28, 0xac, 0x27, 0x0d, 0xc1, 0x0c,
  0xcd, 0x0e, 0xe2, 0x1d, 0x08, 0x27, 0x23, 0x1e, 0x07, 0x32, 0x43, 0xcc,
  0x55, 0xc8, 0x33, 0xdf, 0x01, 0x0b, 0xf0, 0x1c, 0x1b, 0x38, 0x28, 0x23,
  0x1a, 0x0a, 0xab, 0x14, 0x4f, 0xb3, 0x48, 0xe6, 0x0f, 0xfb, 0xdf, 0x0d,
  0xef, 0xf6, 0x29, 0xfa, 0xe8, 0xe3, 0xe5, 0xfa, 0xbf, 0x33, 0x09, 0xe2,
  0x14, 0xf3, 0x25, 0xe6, 0x36, 0xcd, 0x1e, 0xd3, 0x0e, 0xdc, 0x10, 0x2b,
  0x93, 0x05, 0xe3, 0xfd, 0xbc, 0x33, 0x01, 0xf1, 0x42, 0xc0, 0x3c, 0x41,
  0xff, 0x1a, 0x22, 0xd9, 0xf5, 0x25, 0xed, 0x05, 0xc6, 0x25, 0x47, 0x29,
  0x32, 0x08, 0x1e, 0x40, 0xfb, 0x34, 0x1d, 0xc0, 0x02, 0xd0, 0x31, 0x0c,
  0xc6, 0x23, 0xe5, 0x28, 0xeb, 0xea, 0x18, 0xf6, 0x2c, 0x25, 0xe4, 0x0b,
  0x0f, 0x0d, 0x21, 0x25, 0x02, 0x28, 0xf5, 0x28, 0x0d, 0xf7, 0xe6, 0xcb,
  0x26, 0x0c, 0xf9, 0x42, 0xcd, 0xf6, 0xff, 0xd0, 0x02, 0xbd, 0x0c, 0xb8,
  0xca, 0xa5, 0xed, 0x2b, 0xdb, 0xe1, 0x11, 0x10, 0xc7, 0x10, 0x45, 0xef,
  0xd3, 0x11, 0xf8, 0xf5, 0xd1, 0xc4, 0xbc, 0x5c, 0x20, 0xd3, 0x19, 0xe9,
  0x03, 0xfe, 0x36, 0xfe, 0xae, 0xf7, 0x0c, 0x2e, 0xd3, 0x08, 0xf5, 0x5d,
  0xfb, 0x1d, 0xdc, 0x06, 0xe9, 0xe3, 0x09, 0x2c, 0x28, 0x16, 0xd7, 0xf0,
  0xf9, 0x2e, 0x0b, 0x1f, 0xf1, 0xec, 0x11, 0xfa, 0xe4, 0xfe, 0x32, 0xf3,
  0x0b, 0x13, 0x02, 0xf0, 0x03, 0x16, 0xdd, 0x15, 0xf7, 0xe1, 0x2e, 0x19,
  0x2b, 0xf4, 0xf1, 0x04, 0x1f, 0x15, 0xf6, 0x32, 0xfa, 0x1d, 0x02, 0x24,
  0x21, 0xf6, 0xec, 0x41, 0x08, 0xf9, 0x21, 0x27, 0x2a, 0xfa, 0x13, 0x28,
  0xf6, 0x35, 0x25, 0xf0, 0x09, 0x0d, 0xd7, 0x7f, 0x40, 0x07, 0x21, 0x15,
  0x0d, 0xe6, 0x06, 0x32, 0x21, 0x12, 0x30, 0xc8, 0x28, 0x23, 0xf8, 0x47,
  0x24, 0xee, 0x07, 0x0f, 0x34, 0xee, 0xf7, 0xf2, 0xdd, 0xff, 0x19, 0xfb,
  0x21, 0xfb, 0x10, 0xf5, 0x1e, 0x08, 0x0c, 0xec, 0x0c, 0x01, 0xf1, 0xe6,
  0xe3, 0x11, 0x01, 0x00, 0xec, 0x14, 0x44, 0xd9, 0x47, 0x00, 0x47, 0x21,
  0x13, 0xce, 0xc2, 0xfe, 0x03, 0xfa, 0xe3, 0x0c, 0xdd, 0x2d, 0xff, 0x60,
  0x3d, 0xec, 0x26, 0x0c, 0x3c, 0xde, 0xcc, 0x2d, 0xf7, 0xe1, 0xdf, 0xb3,
  0xf2, 0xfa, 0x9f, 0x63, 0x2b, 0xf4, 0x50, 0x0f, 0x1e, 0x11, 0x0c, 0x19,
  0xd4, 0x3e, 0xf9, 0xd5, 0xfe, 0xea, 0xd8, 0x61, 0xdb, 0xff, 0x29, 0x19,
  0x1f, 0x39, 0x42, 0x09, 0xf5, 0xde, 0xf8, 0x0d, 0x04, 0x0a, 0x20, 0xe7,
  0xdf, 0x1e, 0xfe, 0x29, 0xfa, 0xfe, 0x27, 0x12, 0x1d, 0xd7, 0x13, 0x2f,
  0xdc, 0x14, 0x3e, 0xc9, 0x76, 0xd3, 0x16, 0xc1, 0xf9, 0xeb, 0xb9, 0x03,
  0xe2, 0x07, 0xf7, 0x10, 0xfa, 0xda, 0xfa, 0x79, 0x6a, 0xf4, 0x00, 0xb8,
  0x48, 0xd1, 0xc2, 0x1e, 0xd4, 0x2a, 0xcc, 0x90, 0xfd, 0xcb, 0xe5, 0x5d,
  0xec, 0x2a, 0x10, 0xc6, 0x26, 0xff, 0x1b, 0xef, 0xe7, 0xd9, 0x31, 0xf1,
  0x2d, 0xfe, 0xf9, 0x2c, 0x08, 0x38, 0xce, 0x51, 0xc9, 0x1c, 0x08, 0xec,
  0x58, 0xf6, 0x03, 0x38, 0x21, 0x1c, 0x19, 0x0f, 0xf7, 0xd4, 0xa0, 0xff,
  0x01, 0x00, 0xd9, 0xe0, 0x21, 0x3a, 0xce, 0x43, 0xda, 0x19, 0x21, 0x1b,
  0x4b, 0xfd, 0xe1, 0xfd, 0x59, 0xe6, 0xde, 0x29, 0x14, 0x6a, 0x16, 0x2b,
  0xf0, 0xe3, 0x0d, 0xfd, 0x27, 0x02, 0xe8, 0xd1, 0x65, 0xfa, 0xcc, 0x34,
  0x2a, 0x13, 0xff, 0xfe, 0x0d, 0xc8, 0x6b, 0x3c, 0x07, 0x6a, 0xd6, 0x14,
  0x27, 0xe0, 0x3a, 0xcd, 0x23, 0xcc, 0x1e, 0xc1, 0x10, 0xd5, 0x11, 0x3c,
  0x0c, 0xe0, 0xe4, 0xf9, 0x2c, 0x06, 0x0c, 0x34, 0x19, 0xf6, 0x0c, 0x40,
  0x17, 0x2d, 0xff, 0x0f, 0x48, 0x9e, 0xeb, 0xf0, 0x1b, 0xff, 0xd9, 0x44,
  0x05, 0x6e, 0xdd, 0xf6, 0xdc, 0x03, 0xe7, 0x28, 0x1e, 0x31, 0xe8, 0xec,
  0xd8, 0x3a, 0xe7, 0x18, 0x16, 0x47, 0x41, 0xda, 0x06, 0xf5, 0x2a, 0xf1,
  0x05, 0xfd, 0x06, 0x0b, 0x35, 0x28, 0xcf, 0xdc, 0x49, 0x2b, 0x2d, 0x3c,
  0xd9, 0xfd, 0x4c, 0xef, 0xd0, 0x67, 0x3a, 0x26, 0x26, 0xe5, 0x13, 0xac,
  0x09, 0xf3, 0x00, 0x0d, 0xe9, 0x01, 0x0f, 0xfa, 0x2b, 0x16, 0x07, 0xf6,
  0xb7, 0x38, 0x1f, 0x3d, 0xf0, 0x09, 0x32, 0x1a, 0xf2, 0x13, 0x15, 0xd2,
  0x31, 0xc0, 0x4c, 0xe4, 0x0e, 0x23, 0x32, 0x1f, 0xfe, 0x35, 0xed, 0x05,
  0xdd, 0x2c, 0x1d, 0xde, 0x1e, 0xea, 0x12, 0xdd, 0x32, 0x01, 0x3b, 0x41,
  0x1a, 0x1b, 0x14, 0x19, 0x14, 0xf5, 0x05, 0xb9, 0x32, 0xde, 0x3a, 0x27,
  0xc9, 0xe2, 0xcc, 0x4f, 0x1c, 0x0c, 0x1f, 0xeb, 0xf3, 0x34, 0xd2, 0x12,
  0x0b, 0xd1, 0x53, 0xbd, 0x01, 0x18, 0x2f, 0x08, 0xea, 0xda, 0xfc, 0x0c,
  0x10, 0x03, 0xb3, 0x2d, 0xf5, 0x03, 0xfa, 0xd3, 0x20, 0xd8, 0x24, 0x0b,
  0xee, 0x2e, 0xe4, 0xe2, 0xff, 0x20, 0x12, 0xf8, 0x2a, 0x2e, 0x05, 0xad,
  0x53, 0xe4, 0x08, 0x29, 0x26, 0x3f, 0x12, 0x23, 0x25, 0x31, 0x10, 0x2a,
  0x0e, 0xe9, 0xf0, 0x4a, 0x05, 0xf2, 0x0c, 0x23, 0xa2, 0x02, 0x26, 0x15,
  0xfe, 0x05, 0xff, 0xd3, 0x1e, 0x0b, 0x51, 0x1e, 0xd6, 0x0e, 0xeb, 0xf7,
  0xb5, 0x25, 0x06, 0xe3, 0x0f, 0x05, 0xd7, 0xb8, 0xf7, 0x0c, 0xe7, 0xe6,
  0xd9, 0x17, 0xeb, 0x28, 0x35, 0x16, 0xe8, 0xf4, 0xe1, 0x4f, 0xdc, 0xdc,
  0xf5, 0xea, 0x90, 0x08, 0xc5, 0x30, 0xfe, 0x29, 0x0a, 0xfd, 0x0f, 0x0b,
  0x20, 0xd9, 0x18, 0xcd, 0xb9, 0x35, 0xb4, 0xd0, 0x7f, 0x0e, 0x8b, 0x0f,
  0x5a, 0x22, 0x1b, 0xf2, 0xe0, 0xeb, 0x17, 0x7d, 0x21, 0xd4, 0x07, 0xb7,
  0xd0, 0x1d, 0x05, 0x05, 0x13, 0x0d, 0xd7, 0xf1, 0x3e, 0x08, 0xe7, 0x4f,
  0x1a, 0x2f, 0x55, 0xff, 0xe4, 0xf4, 0x39, 0x43, 0x0c, 0xd4, 0x21, 0xec,
  0xfb, 0x2d, 0x1f, 0x08, 0xda, 0xc0, 0x41, 0x2a, 0x25, 0x17, 0xf7, 0x30,
  0x35, 0xd1, 0xe2, 0x26, 0x30, 0x20, 0x21, 0x3c, 0xe9, 0x9b, 0xcf, 0x34,
  0xaf, 0xd8, 0xef, 0x1f, 0xfa, 0xee, 0xe9, 0xc6, 0xed, 0xd0, 0xd8, 0x13,
  0x32, 0x9d, 0x7b, 0xc8, 0x26, 0x0a, 0xb1, 0x27, 0xda, 0x3f, 0xb7, 0xf8,
  0x24, 0xc5, 0xb2, 0x4e, 0x3d, 0xdd, 0xf1, 0xec, 0x39, 0xb3, 0x0a, 0xe1,
  0x14, 0x34, 0xc6, 0xd7, 0x20, 0xe7, 0x1f, 0xf7, 0x6c, 0x0b, 0x65, 0x00,
  0x60, 0xc9, 0xd8, 0x19, 0xbc, 0x2e, 0xfd, 0xf1, 0x24, 0xe2, 0x1f, 0x43,
  0xe4, 0x21, 0x0a, 0xc1, 0x10, 0x1a, 0x07, 0x1a, 0x03, 0x32, 0x06, 0xd8,
  0xe3, 0xde, 0xed, 0xf1, 0x06, 0xc0, 0x26, 0xc4, 0x5a, 0xd3, 0xf8, 0xe8,
  0xf9, 0x2b, 0x0e, 0xbe, 0x24, 0xe4, 0xb2, 0x04, 0x14, 0x2f, 0x32, 0xf1,
  0xf3, 0x1d, 0x1f, 0x3a, 0xd7, 0x0a, 0x19, 0xc2, 0xe3, 0x24, 0x07, 0xaf,
  0xeb, 0xea, 0x08, 0xd9, 0x1b, 0xe8, 0x13, 0xc2, 0xf6, 0xde, 0x18, 0x2c,
  0x02, 0xaf, 0xb1, 0x14, 0xd0, 0x03, 0xf2, 0xfa, 0x19, 0xe5, 0x14, 0x16,
  0xe3, 0xd2, 0x29, 0xc5, 0xb7, 0xf3, 0xd3, 0xf1, 0xe1, 0xfd, 0x25, 0xd4,
  0x1f, 0x08, 0xfb, 0x00, 0x3a, 0x0e, 0x2a, 0xc8, 0xff, 0x29, 0x36, 0xfd,
  0xe0, 0x74, 0x05, 0x11, 0x04, 0x2f, 0xf0, 0xe3, 0x2a, 0x12, 0x5c, 0x46,
  0x00, 0x2c, 0x2a, 0xd0, 0xbd, 0x62, 0xc0, 0xcb, 0xd5, 0x0a, 0x1b, 0xa8,
  0xee, 0xa4, 0xf0, 0x44, 0xdb, 0x12, 0xe8, 0xce, 0xfa, 0xf3, 0x39, 0x16,
  0x0e, 0xf9, 0x26, 0x0a, 0x17, 0x20, 0xf7, 0x12, 0x05, 0x02, 0x2c, 0xe4,
  0x11, 0x1c, 0x2a, 0xff, 0x04, 0x04, 0x11, 0xf0, 0x00, 0xea, 0xdc, 0x3b,
  0x11, 0xe7, 0x32, 0xe9, 0xed, 0x1c, 0x15, 0x18, 0x19, 0xe1, 0xe7, 0x06,
  0x1f, 0xd8, 0x04, 0x2c, 0xf2, 0x2a, 0x54, 0x10, 0xfe, 0x23, 0x17, 0xf2,
  0xfc, 0x23, 0x0e, 0x20, 0x19, 0x19, 0x28, 0x10, 0xe7, 0xe2, 0x6c, 0xfa,
  0x1c, 0x3f, 0x1c, 0x10, 0x28, 0x18, 0xf7, 0x2b, 0x37, 0xe7, 0x2b, 0x24,
  0x1d, 0x2b, 0x42, 0x33, 0xaa, 0xea, 0x26, 0xf2, 0xe5, 0x25, 0xe3, 0x02,
  0xe7, 0xef, 0x02, 0x03, 0x1b, 0x11, 0x31, 0xf2, 0xc6, 0x18, 0x1f, 0xf7,
  0xbe, 0x2c, 0x22, 0xff, 0xd6, 0xc7, 0xed, 0x3f, 0xeb, 0x15, 0xd9, 0xd1,
  0xf4, 0x0b, 0x04, 0xff, 0x0b, 0x04, 0x16, 0xf7, 0xf1, 0x0b, 0xee, 0x2d,
  0x19, 0x0c, 0xe8, 0xc3, 0xf0, 0x0b, 0xa9, 0x04, 0x4a, 0x02, 0xce, 0x22,
  0xd4, 0x0c, 0x0b, 0xf7, 0xdc, 0x13, 0xf4, 0xcd, 0xed, 0x10, 0x07, 0x18,
  0x2c, 0xee, 0xb7, 0xda, 0x0b, 0x43, 0xc9, 0x03, 0xfc, 0xfd, 0x2d, 0x58,
  0xf2, 0x0f, 0x17, 0xf1, 0x13, 0xe2, 0x0d, 0xfe, 0xd6, 0xf2, 0xf6, 0x43,
  0x2f, 0xe6, 0xfb, 0x1e, 0xe0, 0xe7, 0x20, 0xfc, 0xdf, 0x19, 0xe5, 0x18,
  0xd4, 0x14, 0xea, 0x06, 0x30, 0x24, 0x94, 0x0a, 0x49, 0xd3, 0xfb, 0x2d,
  0xf8, 0xf0, 0x0a, 0x33, 0xe7, 0x3d, 0x31, 0xf4, 0x12, 0x41, 0xd6, 0x47,
  0x07, 0xb5, 0x24, 0xed, 0xf8, 0xcf, 0xfb, 0x0e, 0xfc, 0x0d, 0x05, 0xff,
  0xfa, 0x0a, 0xe0, 0x0e, 0x19, 0x9b, 0x21, 0xf1, 0xda, 0xd6, 0xce, 0x34,
  0xdd, 0xf6, 0xdb, 0x19, 0xd8, 0xda, 0x26, 0x0d, 0x20, 0xec, 0x04, 0x04,
  0x50, 0x00, 0xfd, 0x23, 0xfc, 0x33, 0xf1, 0xec, 0x21, 0xf4, 0xe2, 0x44,
  0x36, 0xed, 0x33, 0xd5, 0x37, 0xe2, 0xcc, 0xfb, 0xfc, 0x22, 0xd8, 0xb8,
  0xe2, 0xcb, 0xbc, 0x31, 0x2b, 0xf3, 0x2c, 0x1e, 0x30, 0xde, 0xf1, 0xe8,
  0xc7, 0x24, 0xfd, 0xd2, 0xf3, 0x00, 0xd9, 0x26, 0xf2, 0xd0, 0x2f, 0xf4,
  0x2e, 0x10, 0x1a, 0xf3, 0xe3, 0xff, 0xdc, 0x25, 0x25, 0xdf, 0xdf, 0xf1,
  0x1e, 0xde, 0x12, 0x0e, 0xbc, 0x1a, 0x38, 0x23, 0xfe, 0xe1, 0xf9, 0x07,
  0x08, 0xdf, 0xef, 0xab, 0x1b, 0x04, 0x25, 0xe3, 0x3a, 0xff, 0xe3, 0x15,
  0xe9, 0x24, 0x01, 0x09, 0x04, 0x08, 0xc3, 0x08, 0x58, 0x0d, 0xae, 0x16,
  0x46, 0xef, 0xda, 0x25, 0x1e, 0x5d, 0x39, 0x9f, 0xed, 0x2e, 0xdf, 0x13,
  0x22, 0x3f, 0x16, 0xeb, 0x2e, 0xf9, 0xea, 0x02, 0x01, 0x14, 0x03, 0xf0,
  0x21, 0x13, 0x01, 0x03, 0xe7, 0x27, 0xc7, 0x1b, 0x21, 0x0a, 0x15, 0xe5,
  0xff, 0xd7, 0x3a, 0xeb, 0x04, 0x26, 0x09, 0x05, 0x24, 0x7f, 0xf9, 0x2d,
  0xd3, 0x0d, 0x38, 0x0e, 0x27, 0xe0, 0x34, 0x16, 0x00, 0xfa, 0xe4, 0xeb,
  0xcb, 0xec, 0x9c, 0xe2, 0x26, 0x08, 0x0b, 0x07, 0xdb, 0xf5, 0xeb, 0x28,
  0x22, 0x01, 0xda, 0xad, 0x09, 0xef, 0xcb, 0xe1, 0xfa, 0xf1, 0x06, 0xdc,
  0xfe, 0x04, 0x3b, 0xdf, 0x07, 0xd4, 0xfb, 0xe2, 0xfc, 0xf5, 0xe2, 0x14,
  0x09, 0xe7, 0x14, 0x2c, 0xe8, 0x20, 0x1e, 0xc3, 0xee, 0x27, 0xa2, 0xea,
  0x1b, 0xf3, 0x2c, 0x16, 0x12, 0x22, 0xed, 0x42, 0xe5, 0x2c, 0xf1, 0xc9,
  0xff, 0xfe, 0xda, 0xfd, 0x41, 0x06, 0x04, 0x1b, 0x19, 0x3e, 0xf1, 0xe9,
  0xeb, 0x43, 0x37, 0xdc, 0xef, 0x3d, 0x01, 0x01, 0x09, 0xf1, 0x05, 0xf1,
  0x03, 0x43, 0x19, 0xda, 0x22, 0xf1, 0x3d, 0xc9, 0x05, 0x29, 0xc0, 0x97,
  0xcb, 0x34, 0x19, 0x34, 0xaa, 0x51, 0x2c, 0x11, 0x2a, 0x06, 0x06, 0x13,
  0x38, 0xfc, 0xfe, 0xa6, 0xff, 0xfe, 0x32, 0x33, 0x8d, 0x47, 0x05, 0x17,
  0x27, 0xff, 0x27, 0x16, 0xee, 0x01, 0xe9, 0xc4, 0xf9, 0xea, 0x0d, 0xc6,
  0xbc, 0x1b, 0xea, 0x0e, 0xf9, 0xfa, 0xe9, 0x05, 0x00, 0xd7, 0xef, 0xc3,
  0x00, 0x10, 0x2e, 0xfe, 0xf5, 0x27, 0x17, 0x39, 0xdc, 0xe6, 0x38, 0xe8,
  0x19, 0xfb, 0x08, 0xed, 0x81, 0x01, 0x28, 0x25, 0xe9, 0x30, 0x16, 0xbe,
  0x14, 0xbb, 0x1b, 0xea, 0x45, 0xf8, 0xc0, 0xe9, 0xb3, 0xb7, 0x7c, 0x56,
  0xa9, 0x4d, 0x0d, 0xef, 0x1c, 0x10, 0x09, 0xf9, 0x04, 0x0b, 0x9f, 0xd4,
  0x16, 0xbc, 0x63, 0x48, 0xd8, 0x47, 0xee, 0x4b, 0xba, 0xfc, 0xd5, 0x1c,
  0x11, 0xef, 0xd1, 0xfb, 0xab, 0xf2, 0xed, 0x0d, 0x0f, 0xe5, 0xcc, 0x06,
  0x25, 0x20, 0x01, 0xdd, 0xfa, 0xf1, 0xff, 0x1c, 0x07, 0x46, 0x19, 0x2d,
  0xd4, 0x32, 0x20, 0x24, 0x4b, 0xf4, 0x1a, 0x48, 0x3e, 0x3a, 0x49, 0x12,
  0xf7, 0x24, 0x29, 0x07, 0x0c, 0xf5, 0xf0, 0xc4, 0x20, 0x28, 0x04, 0x10,
  0x2d, 0x0b, 0xc6, 0x28, 0xd4, 0xbf, 0xe9, 0x43, 0x3c, 0xfb, 0x0e, 0x31,
  0xd2, 0x16, 0x10, 0x07, 0x18, 0xdf, 0xa3, 0x14, 0x1e, 0xce, 0xf3, 0x06,
  0x24, 0x57, 0xeb, 0xf5, 0x0d, 0x07, 0xfc, 0xce, 0xfc, 0xca, 0xa7, 0x56,
  0xf5, 0x03, 0x25, 0x19, 0x22, 0x0a, 0x24, 0x0e, 0xfc, 0xdf, 0xe2, 0x04,
  0x31, 0x12, 0x09, 0xf6, 0xfd, 0x14, 0xc7, 0x23, 0xda, 0x17, 0xfe, 0x0a,
  0x05, 0xcf, 0xd6, 0x17, 0x03, 0xee, 0x19, 0x0c, 0xfc, 0xf6, 0xfc, 0x05,
  0xef, 0x12, 0xf5, 0xde, 0x0d, 0x14, 0x00, 0xf1, 0xf7, 0xf4, 0x9e, 0x0e,
  0xfc, 0x10, 0xf3, 0xfe, 0xf0, 0x3a, 0xcf, 0x34, 0x0c, 0x52, 0xef, 0xcd,
  0xf0, 0xec, 0xb0, 0xf3, 0xf7, 0x0e, 0x20, 0xd7, 0xd9, 0x4f, 0xd5, 0x1b,
  0x12, 0x04, 0x36, 0xb9, 0x23, 0x12, 0x16, 0xed, 0xaf, 0x13, 0x02, 0xf5,
  0xea, 0xfa, 0x1f, 0xe5, 0xf3, 0xe8, 0xeb, 0x3b, 0x13, 0x1f, 0x21, 0x1c,
  0xf4, 0x30, 0xa2, 0xcf, 0xd0, 0x07, 0x31, 0xff, 0x13, 0xc9, 0x38, 0xe8,
  0xc7, 0xe5, 0xb2, 0xbd, 0x0b, 0x25, 0xfa, 0xd6, 0xfc, 0x36, 0xfb, 0xfb,
  0xf5, 0xe3, 0xef, 0x0b, 0xeb, 0xfd, 0x3e, 0x25, 0x08, 0xfd, 0x85, 0xf8,
  0x32, 0x21, 0x1d, 0x33, 0x06, 0xfd, 0xf6, 0x9f, 0x0f, 0xfd, 0xc8, 0x16,
  0xf2, 0x26, 0xa3, 0x11, 0x13, 0xe3, 0xe1, 0x00, 0xe1, 0x57, 0x17, 0x9f,
  0x36, 0x2e, 0xd5, 0x54, 0x15, 0xf5, 0xce, 0xf0, 0x40, 0xcb, 0xda, 0x3b,
  0xf8, 0x54, 0xd0, 0xb4, 0x2c, 0x03, 0xd4, 0x0a, 0x14, 0xb7, 0xef, 0xeb,
  0x30, 0xef, 0xf1, 0xf4, 0xcb, 0xfc, 0xd5, 0xff, 0xfd, 0x06, 0xe1, 0x3f,
  0xe6, 0x01, 0x20, 0xd6, 0x29, 0x04, 0xe6, 0x10, 0x05, 0x09, 0x18, 0x1a,
  0xf8, 0x00, 0x09, 0xe5, 0x28, 0xfc, 0xbc, 0xff, 0x1c, 0x13, 0x16, 0x0a,
  0x1c, 0x26, 0xea, 0xf1, 0xe4, 0x0f, 0x0e, 0x38, 0xe6, 0xd8, 0xc1, 0xfd,
  0x3f, 0xfa, 0x05, 0xe6, 0x06, 0xf3, 0xda, 0xd5, 0x21, 0x05, 0x14, 0x71,
  0x5b, 0xe2, 0xee, 0x0b, 0x50, 0xcf, 0xe1, 0x0e, 0xf2, 0x06, 0xe9, 0xe9,
  0x22, 0xd2, 0xdd, 0x44, 0x2f, 0x81, 0x39, 0xd3, 0x64, 0xe8, 0xc1, 0xfa,
  0xda, 0x20, 0xe5, 0xd3, 0x26, 0xef, 0xda, 0x4b, 0x39, 0x25, 0x09, 0x06,
  0x3e, 0xe8, 0x02, 0x0b, 0x0f, 0xe9, 0xd8, 0x0c, 0xf0, 0xd8, 0x47, 0x05,
  0x32, 0xdc, 0x06, 0x13, 0xff, 0x13, 0x1c, 0x17, 0x0d, 0x0f, 0xf4, 0xfa,
  0xef, 0x07, 0x1d, 0xe9, 0x20, 0xff, 0xdb, 0xd1, 0x20, 0xf0, 0xec, 0x21,
  0x20, 0x32, 0x2e, 0x19, 0x0b, 0xf0, 0x1a, 0x1f, 0x3c, 0x04, 0x24, 0x06,
  0x4b, 0x1c, 0xdd, 0x1c, 0xfe, 0xf9, 0x14, 0x1c, 0x0f, 0x0a, 0x1d, 0x4b,
  0x16, 0x1a, 0x28, 0xfa, 0x0e, 0xf5, 0x13, 0xdc, 0xd7, 0xca, 0x0e, 0xc9,
  0x16, 0xd9, 0xe8, 0xcd, 0x13, 0xfc, 0x2e, 0x20, 0x02, 0x09, 0x17, 0x16,
  0xd8, 0xde, 0x0d, 0x0d, 0xe6, 0xfc, 0x21, 0xfa, 0xf9, 0x26, 0x4d, 0xde,
  0xdf, 0xe0, 0x29, 0x14, 0xd3, 0x28, 0xf2, 0x0f, 0x1b, 0x0b, 0xde, 0xe3,
  0x1f, 0xf3, 0xea, 0xea, 0x1e, 0x3c, 0xea, 0x2d, 0xfe, 0x0b, 0x32, 0x0d,
  0x21, 0xf9, 0x16, 0xf9, 0x00, 0x0c, 0x09, 0x08, 0x11, 0x17, 0x2b, 0xe8,
  0x01, 0x0e, 0x47, 0xd5, 0x1e, 0xfb, 0xfb, 0xe4, 0xd3, 0x29, 0xe9, 0xed,
  0xfa, 0x18, 0xe8, 0xbc, 0x55, 0xee, 0xf9, 0x22, 0xf6, 0x29, 0x3a, 0xdc,
  0x01, 0x1f, 0x2f, 0x12, 0xef, 0x0d, 0xe3, 0xf2, 0x0f, 0x11, 0xe8, 0x11,
  0x2a, 0x28, 0x4f, 0xf9, 0x23, 0x1f, 0xe6, 0xef, 0xf1, 0xf3, 0x0b, 0x4e,
  0xf0, 0x29, 0x1d, 0xb6, 0xf5, 0xfa, 0x04, 0x42, 0x35, 0xe8, 0xd9, 0xfe,
  0x0a, 0x2f, 0xd0, 0x47, 0x00, 0x4a, 0xfc, 0xe2, 0x18, 0x3b, 0xea, 0xff,
  0x08, 0xf5, 0x12, 0x25, 0x05, 0xf9, 0xc6, 0x0f, 0x06, 0x0f, 0xe4, 0xc8,
  0x27, 0x23, 0x2a, 0x26, 0x10, 0xf5, 0x18, 0x1c, 0x49, 0x29, 0x0b, 0x10,
  0x08, 0x01, 0xf9, 0xd4, 0x2c, 0xce, 0x18, 0x11, 0x4a, 0xfd, 0xff, 0xff,
  0x04, 0x00, 0x00, 0x00, 0x80, 0x00, 0x00, 0x00, 0x48, 0x01, 0x00, 0x00,
  0xa7, 0x00, 0x00, 0x00, 0x89, 0x01, 0x00, 0x00, 0xaa, 0x02, 0x00, 0x00,
  0x1c, 0x05, 0x00, 0x00, 0xff, 0x00, 0x00, 0x00, 0xf8, 0x01, 0x00, 0x00,
  0x34, 0x00, 0x00, 0x00, 0x48, 0x00, 0x00, 0x00, 0xc6, 0x04, 0x00, 0x00,
  0x5a, 0x03, 0x00, 0x00, 0x94, 0x01, 0x00, 0x00, 0x7f, 0x01, 0x00, 0x00,
  0xe7, 0x01, 0x00, 0x00, 0x3c, 0x00, 0x00, 0x00, 0x6e, 0xff, 0xff, 0xff,
  0x5d, 0x01, 0x00, 0x00, 0x5d, 0xfe, 0xff, 0xff, 0x8c, 0x00, 0x00, 0x00,
  0x35, 0x02, 0x00, 0x00, 0xa0, 0xfd, 0xff, 0xff, 0x9a, 0x02, 0x00, 0x00,
  0x1a, 0xfe, 0xff, 0xff, 0x6c, 0x01, 0x00, 0x00, 0xba, 0xfe, 0xff, 0xff,
  0x98, 0xff, 0xff, 0xff, 0xd8, 0x00, 0x00, 0x00, 0x74, 0x02, 0x00, 0x00,
  0xaa, 0xfd, 0xff, 0xff, 0x31, 0x01, 0x00, 0x00, 0x52, 0xfe, 0xff, 0xff,
  0x17, 0x03, 0x00, 0x00, 0xd6, 0xfd, 0xff, 0xff, 0x04, 0x00, 0x00, 0x00,
  0x40, 0x01, 0x00, 0x00, 0xab, 0x9c, 0x4e, 0xbe, 0x2d, 0x1e, 0x47, 0xc5,
  0x4c, 0xf9, 0xc6, 0xe1, 0xb0, 0x31, 0x16, 0xd3, 0x1a, 0xf8, 0xf9, 0xe5,
  0x4a, 0x20, 0xfe, 0x22, 0x3a, 0xef, 0xc8, 0xa4, 0x0f, 0x81, 0x38, 0x2e,
  0x24, 0xbf, 0x36, 0x1b, 0x4b, 0x3a, 0x14, 0xc9, 0xb7, 0x4e, 0x21, 0x2a,
  0x01, 0x9d, 0x48, 0xa9, 0x40, 0x4e, 0xe9, 0x9e, 0x14, 0x5b, 0x1e, 0xe7,
  0x81, 0x52, 0xca, 0x4a, 0xcd, 0x36, 0xba, 0xe6, 0xde, 0x5f, 0x22, 0x8b,
  0xbb, 0xa5, 0xfc, 0x72, 0xb7, 0x6f, 0xfe, 0xe4, 0x81, 0x26, 0x06, 0x44,
  0x73, 0x8c, 0xb2, 0x96, 0x10, 0x9c, 0x9e, 0x5b, 0x41, 0x3c, 0xb1, 0x54,
  0xba, 0xc4, 0xf4, 0x61, 0x05, 0xbd, 0xc5, 0x06, 0x21, 0x9e, 0x02, 0xc3,
  0xad, 0x36, 0x48, 0x81, 0x14, 0x20, 0x16, 0xb4, 0x39, 0x99, 0x16, 0x1b,
  0xdf, 0xdc, 0xcc, 0xbe, 0x17, 0x41, 0xa2, 0x1f, 0x2e, 0x26, 0xff, 0x23,
  0x6e, 0x55, 0x81, 0x9b, 0x85, 0xd1, 0x5b, 0xbe, 0x4a, 0xa0, 0xfe, 0x33,
  0xf7, 0xdd, 0x66, 0xdc, 0x58, 0xff, 0xed, 0xb2, 0xee, 0xbf, 0xeb, 0x19,
  0x3e, 0x31, 0xd1, 0x10, 0x5a, 0x46, 0x7e, 0xac, 0x30, 0x0b, 0x12, 0xfc,
  0xce, 0x02, 0x81, 0x23, 0x50, 0xf7, 0xc1, 0x30, 0x2d, 0x3c, 0x2c, 0xdc,
  0x2b, 0x35, 0xd9, 0x1c, 0x3a, 0xb1, 0x0a, 0xd0, 0xf3, 0xe1, 0xe0, 0x0a,
  0x4f, 0x5e, 0x1c, 0x44, 0xc7, 0xd0, 0xed, 0x49, 0xc5, 0xfa, 0xfa, 0x05,
  0xf8, 0x00, 0x3b, 0x02, 0x19, 0x49, 0x55, 0xe3, 0xf3, 0x04, 0x81, 0xc7,
  0x32, 0x37, 0xd4, 0x08, 0xb9, 0x1e, 0x4c, 0x9b, 0xec, 0x03, 0xda, 0x53,
  0x7f, 0xab, 0xb3, 0xeb, 0xd0, 0x0b, 0xb8, 0xa0, 0x31, 0xd5, 0x97, 0xc5,
  0xad, 0x3c, 0x58, 0x61, 0xd1, 0x1d, 0x71, 0x4b, 0xb8, 0x49, 0x1c, 0x4e,
  0x96, 0xd6, 0xd6, 0x6d, 0x43, 0x91, 0xde, 0x37, 0xa7, 0xda, 0x52, 0x3e,
  0xb2, 0x1d, 0x18, 0x2b, 0x81, 0xa8, 0xb5, 0x20, 0x0d, 0x08, 0x0b, 0x39,
  0xdb, 0x27, 0xcc, 0xd2, 0xb9, 0xea, 0x19, 0x8f, 0x71, 0xf2, 0xd1, 0x4c,
  0x1c, 0xfb, 0x63, 0x06, 0xdf, 0x4a, 0x89, 0x35, 0x27, 0x95, 0x12, 0x33,
  0x3f, 0x81, 0xd5, 0xdc, 0x38, 0xf3, 0x82, 0x22, 0x15, 0xa8, 0xd9, 0x32,
  0x5e, 0x72, 0x12, 0xde, 0x9e, 0xb0, 0xa5, 0x1a, 0x02, 0xff, 0x6f, 0x56,
  0x22, 0xff, 0xff, 0xff, 0x04, 0x00, 0x00, 0x00, 0x28, 0x00, 0x00, 0x00,
  0x15, 0x00, 0x00, 0x00, 0xaa, 0x00, 0x00, 0x00, 0x13, 0x00, 0x00, 0x00,
  0x3a, 0x00, 0x00, 0x00, 0x54, 0xff, 0xff, 0xff, 0x82, 0xff, 0xff, 0xff,
  0x08, 0x00, 0x00, 0x00, 0xe4, 0xff, 0xff, 0xff, 0xad, 0xff, 0xff, 0xff,
  0x6a, 0x00, 0x00, 0x00, 0x56, 0xff, 0xff, 0xff, 0x04, 0x00, 0x00, 0x00,
  0x08, 0x00, 0x00, 0x00, 0xff, 0xff, 0xff, 0xff, 0x90, 0x01, 0x00, 0x00,
  0xc0, 0xee, 0xff, 0xff, 0xc4, 0xee, 0xff, 0xff, 0x0f, 0x00, 0x00, 0x00,
  0x4d, 0x4c, 0x49, 0x52, 0x20, 0x43, 0x6f, 0x6e, 0x76, 0x65, 0x72, 0x74,
  0x65, 0x64, 0x2e, 0x00, 0x01, 0x00, 0x00, 0x00, 0x14, 0x00, 0x00, 0x00,
  0x00, 0x00, 0x0e, 0x00, 0x18, 0x00, 0x14, 0x00, 0x10, 0x00, 0x0c, 0x00,
  0x08, 0x00, 0x04, 0x00, 0x0e, 0x00, 0x00, 0x00, 0x14, 0x00, 0x00, 0x00,
  0x1c, 0x00, 0x00, 0x00, 0x54, 0x02, 0x00, 0x00, 0x58, 0x02, 0x00, 0x00,
  0x5c, 0x02, 0x00, 0x00, 0x04, 0x00, 0x00, 0x00, 0x6d, 0x61, 0x69, 0x6e,
  0x00, 0x00, 0x00, 0x00, 0x08, 0x00, 0x00, 0x00, 0xec, 0x01, 0x00, 0x00,
  0x88, 0x01, 0x00, 0x00, 0x34, 0x01, 0x00, 0x00, 0xf0, 0x00, 0x00, 0x00,
  0xc8, 0x00, 0x00, 0x00, 0x78, 0x00, 0x00, 0x00, 0x40, 0x00, 0x00, 0x00,
  0x04, 0x00, 0x00, 0x00, 0xa2, 0xfe, 0xff, 0xff, 0x1c, 0x00, 0x00, 0x00,
  0x00, 0x00, 0x00, 0x09, 0x1c, 0x00, 0x00, 0x00, 0x20, 0x00, 0x00, 0x00,
  0x04, 0x00, 0x00, 0x00, 0x00, 0x00, 0x06, 0x00, 0x08, 0x00, 0x04, 0x00,
  0x06, 0x00, 0x00, 0x00, 0x00, 0x00, 0x80, 0x3f, 0x01, 0x00, 0x00, 0x00,
  0x11, 0x00, 0x00, 0x00, 0x01, 0x00, 0x00, 0x00, 0x10, 0x00, 0x00, 0x00,
  0xda, 0xfe, 0xff, 0xff, 0x14, 0x00, 0x00, 0x00, 0x00, 0x00, 0x00, 0x08,
  0x10, 0x00, 0x00, 0x00, 0x14, 0x00, 0x00, 0x00, 0x03, 0x00, 0x00, 0x00,
  0x8c, 0xef, 0xff, 0xff, 0x01, 0x00, 0x00, 0x00, 0x10, 0x00, 0x00, 0x00,
  0x03, 0x00, 0x00, 0x00, 0x0f, 0x00, 0x00, 0x00, 0x03, 0x00, 0x00, 0x00,
  0x02, 0x00, 0x00, 0x00, 0x0e, 0xff, 0xff, 0xff, 0x1c, 0x00, 0x00, 0x00,
  0x00, 0x00, 0x00, 0x08, 0x1c, 0x00, 0x00, 0x00, 0x20, 0x00, 0x00, 0x00,
  0x03, 0x00, 0x00, 0x00, 0x00, 0x00, 0x06, 0x00, 0x08, 0x00, 0x07, 0x00,
  0x06, 0x00, 0x00, 0x00, 0x00, 0x00, 0x00, 0x01, 0x01, 0x00, 0x00, 0x00,
  0x0f, 0x00, 0x00, 0x00, 0x03, 0x00, 0x00, 0x00, 0x0e, 0x00, 0x00, 0x00,
  0x05, 0x00, 0x00, 0x00, 0x04, 0x00, 0x00, 0x00, 0x00, 0x00, 0x0a, 0x00,
  0x10, 0x00, 0x0c, 0x00, 0x08, 0x00, 0x04, 0x00, 0x0a, 0x00, 0x00, 0x00,
  0x0c, 0x00, 0x00, 0x00, 0x10, 0x00, 0x00, 0x00, 0x02, 0x00, 0x00, 0x00,
  0x01, 0x00, 0x00, 0x00, 0x0e, 0x00, 0x00, 0x00, 0x02, 0x00, 0x00, 0x00,
  0x0d, 0x00, 0x00, 0x00, 0x01, 0x00, 0x00, 0x00, 0x7e, 0xff, 0xff, 0xff,
  0x14, 0x00, 0x00, 0x00, 0x00, 0x00, 0x00, 0x05, 0x24, 0x00, 0x00, 0x00,
  0x28, 0x00, 0x00, 0x00, 0x01, 0x00, 0x00, 0x00, 0x6e, 0xff, 0xff, 0xff,
  0x02, 0x00, 0x00, 0x00, 0x02, 0x00, 0x00, 0x00, 0x02, 0x00, 0x00, 0x00,
  0x02, 0x00, 0x00, 0x00, 0x00, 0x00, 0x00, 0x01, 0x01, 0x00, 0x00, 0x00,
  0x0d, 0x00, 0x00, 0x00, 0x01, 0x00, 0x00, 0x00, 0x0c, 0x00, 0x00, 0x00,
  0x5e, 0xff, 0xff, 0xff, 0x10, 0x00, 0x00, 0x00, 0x00, 0x00, 0x00, 0x01,
  0x1c, 0x00, 0x00, 0x00, 0x20, 0x00, 0x00, 0x00, 0x50, 0xff, 0xff, 0xff,
  0x00, 0x00, 0x00, 0x01, 0x01, 0x00, 0x00, 0x00, 0x01, 0x00, 0x00, 0x00,
  0x00, 0x00, 0x00, 0x01, 0x01, 0x00, 0x00, 0x00, 0x0c, 0x00, 0x00, 0x00,
  0x03, 0x00, 0x00, 0x00, 0x0b, 0x00, 0x00, 0x00, 0x07, 0x00, 0x00, 0x00,
  0x06, 0x00, 0x00, 0x00, 0x00, 0x00, 0x0e, 0x00, 0x1a, 0x00, 0x14, 0x00,
  0x10, 0x00, 0x0c, 0x00, 0x0b, 0x00, 0x04, 0x00, 0x0e, 0x00, 0x00, 0x00,
  0x24, 0x00, 0x00, 0x00, 0x00, 0x00, 0x00, 0x05, 0x34, 0x00, 0x00, 0x00,
  0x38, 0x00, 0x00, 0x00, 0x01, 0x00, 0x00, 0x00, 0x00, 0x00, 0x0e, 0x00,
  0x18, 0x00, 0x17, 0x00, 0x10, 0x00, 0x0c, 0x00, 0x08, 0x00, 0x04, 0x00,
  0x0e, 0x00, 0x00, 0x00, 0x02, 0x00, 0x00, 0x00, 0x02, 0x00, 0x00, 0x00,
  0x02, 0x00, 0x00, 0x00, 0x02, 0x00, 0x00, 0x00, 0x00, 0x00, 0x00, 0x01,
  0x01, 0x00, 0x00, 0x00, 0x0b, 0x00, 0x00, 0x00, 0x01, 0x00, 0x00, 0x00,
  0x0a, 0x00, 0x00, 0x00, 0x00, 0x00, 0x0e, 0x00, 0x14, 0x00, 0x00, 0x00,
  0x10, 0x00, 0x0c, 0x00, 0x0b, 0x00, 0x04, 0x00, 0x0e, 0x00, 0x00, 0x00,
  0x1c, 0x00, 0x00, 0x00, 0x00, 0x00, 0x00, 0x01, 0x28, 0x00, 0x00, 0x00,
  0x2c, 0x00, 0x00, 0x00, 0x0c, 0x00, 0x14, 0x00, 0x13, 0x00, 0x0c, 0x00,
  0x08, 0x00, 0x07, 0x00, 0x0c, 0x00, 0x00, 0x00, 0x00, 0x00, 0x00, 0x01,
  0x01, 0x00, 0x00, 0x00, 0x01, 0x00, 0x00, 0x00, 0x00, 0x00, 0x00, 0x01,
  0x01, 0x00, 0x00, 0x00, 0x0a, 0x00, 0x00, 0x00, 0x03, 0x00, 0x00, 0x00,
  0x00, 0x00, 0x00, 0x00, 0x09, 0x00, 0x00, 0x00, 0x08, 0x00, 0x00, 0x00,
  0x01, 0x00, 0x00, 0x00, 0x11, 0x00, 0x00, 0x00, 0x01, 0x00, 0x00, 0x00,
  0x00, 0x00, 0x00, 0x00, 0x12, 0x00, 0x00, 0x00, 0xd4, 0x0e, 0x00, 0x00,
  0x78, 0x0e, 0x00, 0x00, 0x90, 0x0d, 0x00, 0x00, 0xbc, 0x0c, 0x00, 0x00,
  0xe8, 0x0a, 0x00, 0x00, 0x0c, 0x09, 0x00, 0x00, 0xf8, 0x07, 0x00, 0x00,
  0xd4, 0x06, 0x00, 0x00, 0x20, 0x06, 0x00, 0x00, 0x5c, 0x05, 0x00, 0x00,
  0x88, 0x04, 0x00, 0x00, 0xec, 0x03, 0x00, 0x00, 0xf8, 0x02, 0x00, 0x00,
  0x5c, 0x02, 0x00, 0x00, 0xd8, 0x01, 0x00, 0x00, 0x24, 0x01, 0x00, 0x00,
  0x80, 0x00, 0x00, 0x00, 0x04, 0x00, 0x00, 0x00, 0x8a, 0xf1, 0xff, 0xff,
  0x00, 0x00, 0x00, 0x01, 0x18, 0x00, 0x00, 0x00, 0x20, 0x00, 0x00, 0x00,
  0x3c, 0x00, 0x00, 0x00, 0x12, 0x00, 0x00, 0x00, 0x00, 0x00, 0x00, 0x09,
  0x50, 0x00, 0x00, 0x00, 0x02, 0x00, 0x00, 0x00, 0xff, 0xff, 0xff, 0xff,
  0x0a, 0x00, 0x00, 0x00, 0x6c, 0xf1, 0xff, 0xff, 0x08, 0x00, 0x00, 0x00,
  0x10, 0x00, 0x00, 0x00, 0x01, 0x00, 0x00, 0x00, 0x80, 0xff, 0xff, 0xff,
  0xff, 0xff, 0xff, 0xff, 0x01, 0x00, 0x00, 0x00, 0x00, 0x00, 0x80, 0x3b,
  0x1b, 0x00, 0x00, 0x00, 0x53, 0x74, 0x61, 0x74, 0x65, 0x66, 0x75, 0x6c,
  0x50, 0x61, 0x72, 0x74, 0x69, 0x74, 0x69, 0x6f, 0x6e, 0x65, 0x64, 0x43,
  0x61, 0x6c, 0x6c, 0x5f, 0x31, 0x3a, 0x30, 0x00, 0x02, 0x00, 0x00, 0x00,
  0x01, 0x00, 0x00, 0x00, 0x0a, 0x00, 0x00, 0x00, 0x02, 0xf2, 0xff, 0xff,
